{"version": "1.0", "truncation": null, "padding": null, "added_tokens": [{"id": 0, "content": "<unk>", "single_word": false, "lstrip": false, "rstrip": false, "normalized": false, "special": true}, {"id": 1, "content": "<s>", "single_word": false, "lstrip": false, "rstrip": false, "normalized": false, "special": true}, {"id": 2, "content": "</s>", "single_word": false, "lstrip": false, "rstrip": false, "normalized": false, "special": true}], "normalizer": {"type": "Sequence", "normalizers": [{"type": "Prepend", "prepend": "\u2581"}, {"type": "Replace", "pattern": {"String": " "}, "content": "\u2581"}]}, "pre_tokenizer": null, "post_processor": {"type": "TemplateProcessing", "single": [{"SpecialToken": {"id": "<s>", "type_id": 0}}, {"Sequence": {"id": "A", "type_id": 0}}], "pair": [{"SpecialToken": {"id": "<s>", "type_id": 0}}, {"Sequence": {"id": "A", "type_id": 0}}, {"SpecialToken": {"id": "<s>", "type_id": 1}}, {"Sequence": {"id": "B", "type_id": 1}}], "special_tokens": {"<s>": {"id": "<s>", "ids": [1], "tokens": ["<s>"]}}}, "decoder": {"type": "Sequence", "decoders": [{"type": "Replace", "pattern": {"String": "\u2581"}, "content": " "}, {"type": "ByteFallback"}, {"type": "Fuse"}, {"type": "Strip", "content": " ", "start": 1, "stop": 0}]}, "model": {"type": "BPE", "dropout": null, "unk_token": "<unk>", "continuing_subword_prefix": null, "end_of_word_suffix": null, "fuse_unk": true, "byte_fallback": true, "ignore_merges": false, "vocab": {"<unk>": 0, "<s>": 1, "</s>": 2, "<0x00>": 3, "<0x01>": 4, "<0x02>": 5, "<0x03>": 6, "<0x04>": 7, "<0x05>": 8, "<0x06>": 9, "<0x07>": 10, "<0x08>": 11, "<0x09>": 12, "<0x0A>": 13, "<0x0B>": 14, "<0x0C>": 15, "<0x0D>": 16, "<0x0E>": 17, "<0x0F>": 18, "<0x10>": 19, "<0x11>": 20, "<0x12>": 21, "<0x13>": 22, "<0x14>": 23, "<0x15>": 24, "<0x16>": 25, "<0x17>": 26, "<0x18>": 27, "<0x19>": 28, "<0x1A>": 29, "<0x1B>": 30, "<0x1C>": 31, "<0x1D>": 32, "<0x1E>": 33, "<0x1F>": 34, "<0x20>": 35, "<0x21>": 36, "<0x22>": 37, "<0x23>": 38, "<0x24>": 39, "<0x25>": 40, "<0x26>": 41, "<0x27>": 42, "<0x28>": 43, "<0x29>": 44, "<0x2A>": 45, "<0x2B>": 46, "<0x2C>": 47, "<0x2D>": 48, "<0x2E>": 49, "<0x2F>": 50, "<0x30>": 51, "<0x31>": 52, "<0x32>": 53, "<0x33>": 54, "<0x34>": 55, "<0x35>": 56, "<0x36>": 57, "<0x37>": 58, "<0x38>": 59, "<0x39>": 60, "<0x3A>": 61, "<0x3B>": 62, "<0x3C>": 63, "<0x3D>": 64, "<0x3E>": 65, "<0x3F>": 66, "<0x40>": 67, "<0x41>": 68, "<0x42>": 69, "<0x43>": 70, "<0x44>": 71, "<0x45>": 72, "<0x46>": 73, "<0x47>": 74, "<0x48>": 75, "<0x49>": 76, "<0x4A>": 77, "<0x4B>": 78, "<0x4C>": 79, "<0x4D>": 80, "<0x4E>": 81, "<0x4F>": 82, "<0x50>": 83, "<0x51>": 84, "<0x52>": 85, "<0x53>": 86, "<0x54>": 87, "<0x55>": 88, "<0x56>": 89, "<0x57>": 90, "<0x58>": 91, "<0x59>": 92, "<0x5A>": 93, "<0x5B>": 94, "<0x5C>": 95, "<0x5D>": 96, "<0x5E>": 97, "<0x5F>": 98, "<0x60>": 99, "<0x61>": 100, "<0x62>": 101, "<0x63>": 102, "<0x64>": 103, "<0x65>": 104, "<0x66>": 105, "<0x67>": 106, "<0x68>": 107, "<0x69>": 108, "<0x6A>": 109, "<0x6B>": 110, "<0x6C>": 111, "<0x6D>": 112, "<0x6E>": 113, "<0x6F>": 114, "<0x70>": 115, "<0x71>": 116, "<0x72>": 117, "<0x73>": 118, "<0x74>": 119, "<0x75>": 120, "<0x76>": 121, "<0x77>": 122, "<0x78>": 123, "<0x79>": 124, "<0x7A>": 125, "<0x7B>": 126, "<0x7C>": 127, "<0x7D>": 128, "<0x7E>": 129, "<0x7F>": 130, "<0x80>": 131, "<0x81>": 132, "<0x82>": 133, "<0x83>": 134, "<0x84>": 135, "<0x85>": 136, "<0x86>": 137, "<0x87>": 138, "<0x88>": 139, "<0x89>": 140, "<0x8A>": 141, "<0x8B>": 142, "<0x8C>": 143, "<0x8D>": 144, "<0x8E>": 145, "<0x8F>": 146, "<0x90>": 147, "<0x91>": 148, "<0x92>": 149, "<0x93>": 150, "<0x94>": 151, "<0x95>": 152, "<0x96>": 153, "<0x97>": 154, "<0x98>": 155, "<0x99>": 156, "<0x9A>": 157, "<0x9B>": 158, "<0x9C>": 159, "<0x9D>": 160, "<0x9E>": 161, "<0x9F>": 162, "<0xA0>": 163, "<0xA1>": 164, "<0xA2>": 165, "<0xA3>": 166, "<0xA4>": 167, "<0xA5>": 168, "<0xA6>": 169, "<0xA7>": 170, "<0xA8>": 171, "<0xA9>": 172, "<0xAA>": 173, "<0xAB>": 174, "<0xAC>": 175, "<0xAD>": 176, "<0xAE>": 177, "<0xAF>": 178, "<0xB0>": 179, "<0xB1>": 180, "<0xB2>": 181, "<0xB3>": 182, "<0xB4>": 183, "<0xB5>": 184, "<0xB6>": 185, "<0xB7>": 186, "<0xB8>": 187, "<0xB9>": 188, "<0xBA>": 189, "<0xBB>": 190, "<0xBC>": 191, "<0xBD>": 192, "<0xBE>": 193, "<0xBF>": 194, "<0xC0>": 195, "<0xC1>": 196, "<0xC2>": 197, "<0xC3>": 198, "<0xC4>": 199, "<0xC5>": 200, "<0xC6>": 201, "<0xC7>": 202, "<0xC8>": 203, "<0xC9>": 204, "<0xCA>": 205, "<0xCB>": 206, "<0xCC>": 207, "<0xCD>": 208, "<0xCE>": 209, "<0xCF>": 210, "<0xD0>": 211, "<0xD1>": 212, "<0xD2>": 213, "<0xD3>": 214, "<0xD4>": 215, "<0xD5>": 216, "<0xD6>": 217, "<0xD7>": 218, "<0xD8>": 219, "<0xD9>": 220, "<0xDA>": 221, "<0xDB>": 222, "<0xDC>": 223, "<0xDD>": 224, "<0xDE>": 225, "<0xDF>": 226, "<0xE0>": 227, "<0xE1>": 228, "<0xE2>": 229, "<0xE3>": 230, "<0xE4>": 231, "<0xE5>": 232, "<0xE6>": 233, "<0xE7>": 234, "<0xE8>": 235, "<0xE9>": 236, "<0xEA>": 237, "<0xEB>": 238, "<0xEC>": 239, "<0xED>": 240, "<0xEE>": 241, "<0xEF>": 242, "<0xF0>": 243, "<0xF1>": 244, "<0xF2>": 245, "<0xF3>": 246, "<0xF4>": 247, "<0xF5>": 248, "<0xF6>": 249, "<0xF7>": 250, "<0xF8>": 251, "<0xF9>": 252, "<0xFA>": 253, "<0xFB>": 254, "<0xFC>": 255, "<0xFD>": 256, "<0xFE>": 257, "<0xFF>": 258, "\u2581\u2581": 259, "\u2581t": 260, "er": 261, "in": 262, "\u2581a": 263, "en": 264, "on": 265, "\u2581th": 266, "es": 267, "\u2581s": 268, "\u2581d": 269, "at": 270, "or": 271, "an": 272, "\u2581c": 273, "is": 274, "re": 275, "it": 276, "\u2581the": 277, "ar": 278, "le": 279, "\u2581w": 280, "\u2581p": 281, "ou": 282, "al": 283, "\u2581f": 284, "\u2581m": 285, "ed": 286, "\u2581o": 287, "\u2581b": 288, "om": 289, "ion": 290, "ing": 291, "ic": 292, "as": 293, "el": 294, "ent": 295, "\u2581in": 296, "\u2581h": 297, "nd": 298, "et": 299, "\u2581l": 300, "\u2581n": 301, "st": 302, "\u2581to": 303, "ch": 304, "\u2581I": 305, "ro": 306, "il": 307, "\u2581of": 308, "de": 309, "ct": 310, "\u2581(": 311, "am": 312, "\u2581C": 313, "\u2581de": 314, "\u2581S": 315, "\u2581u": 316, "\u2581A": 317, "\u2581e": 318, "\u2581and": 319, "\u2581T": 320, "ol": 321, "\u2581v": 322, "im": 323, "ot": 324, "ad": 325, "ut": 326, "\u2581g": 327, "em": 328, "ur": 329, "id": 330, "\u2581*": 331, "ig": 332, "ra": 333, "\u2581re": 334, "\u2581is": 335, "qu": 336, "ow": 337, "\u2581M": 338, "est": 339, "\u2581y": 340, "se": 341, "ve": 342, "ce": 343, "ie": 344, "un": 345, "\u2581P": 346, "\u2581B": 347, "ag": 348, "ul": 349, "\u2581=": 350, "he": 351, "end": 352, "ode": 353, "ter": 354, "ment": 355, "os": 356, "\u2581D": 357, "if": 358, "ation": 359, "\u2581for": 360, "\u2581r": 361, "\u2581L": 362, "\u2581you": 363, "\u2581be": 364, "ly": 365, "ver": 366, "ab": 367, "te": 368, "\u2581it": 369, "\u2581on": 370, "ri": 371, "us": 372, "\u2581\"": 373, "\u2581wh": 374, "\u2581con": 375, "\u2581H": 376, "\u2581st": 377, "ir": 378, "\u2581E": 379, "\u2581F": 380, "ck": 381, "\u2581an": 382, "th": 383, "eg": 384, "ay": 385, "ith": 386, "\u2581R": 387, "ist": 388, "and": 389, "\u2581that": 390, "\u2581al": 391, "\u2581$": 392, "\u2581#": 393, "od": 394, "um": 395, "\u2581W": 396, "ht": 397, "\u2581G": 398, "ate": 399, "ess": 400, "\u2581N": 401, "ere": 402, "pp": 403, "\u2581as": 404, "\u2581se": 405, "\u2581pro": 406, "\u2581with": 407, "pe": 408, "\u2581k": 409, "ers": 410, "pt": 411, "lo": 412, "\u2581com": 413, "ame": 414, "ia": 415, "ant": 416, "\u2581la": 417, "\u2581en": 418, "ction": 419, "\u2581ex": 420, "ld": 421, "ub": 422, "\u2581j": 423, "la": 424, "ue": 425, "\u2581J": 426, "ich": 427, "\u2581do": 428, "\u2581O": 429, "\u2581qu": 430, "iv": 431, "ort": 432, "art": 433, "\u2581un": 434, "\u2581this": 435, "ke": 436, "\u2581ha": 437, "\u2581-": 438, "out": 439, "\u2581not": 440, "\u2581ne": 441, "ill": 442, "\u2581le": 443, "ci": 444, "ine": 445, "op": 446, "ass": 447, "iz": 448, ").": 449, "og": 450, "\u2581or": 451, "\u2581was": 452, "\u2581at": 453, "our": 454, "\u2581i": 455, "ain": 456, "\u2581K": 457, "\u2581V": 458, "ge": 459, "\u2581su": 460, "ap": 461, "age": 462, "ould": 463, "ne": 464, "av": 465, "ore": 466, "ile": 467, "\u2581by": 468, "li": 469, "ath": 470, "ber": 471, "ach": 472, "all": 473, "\u2581U": 474, "\u2581us": 475, "\u2581z": 476, "ust": 477, "\u2581have": 478, "lic": 479, "\u2581can": 480, "tr": 481, "com": 482, "),": 483, "\u2581In": 484, "ind": 485, "ell": 486, "\u2581from": 487, "to": 488, "\u2581[": 489, "able": 490, "ost": 491, "\u2581ch": 492, "ight": 493, "int": 494, "\u2581'": 495, "\u2581are": 496, "\u2581im": 497, "\u2581sh": 498, "ata": 499, "ire": 500, "\u2581tr": 501, "con": 502, "ord": 503, "ity": 504, "ard": 505, "\u2581he": 506, "\u2581but": 507, "oc": 508, "=\"": 509, "\u2581pr": 510, "ure": 511, "per": 512, "ack": 513, "ong": 514, "ans": 515, "ple": 516, "\u2581des": 517, "ok": 518, "orm": 519, "ak": 520, "pr": 521, "ase": 522, "\u2581el": 523, "ph": 524, "ac": 525, "\u2581und": 526, "\u2581ar": 527, "\u2581if": 528, "ud": 529, "ps": 530, "ite": 531, "ble": 532, "pl": 533, "ive": 534, "ang": 535, "ens": 536, "\u2581so": 537, "so": 538, "ast": 539, "ru": 540, "ies": 541, "\u2581:": 542, "au": 543, "ov": 544, "\u2581der": 545, "\u2581my": 546, "\u2581we": 547, "\u2581me": 548, "nt": 549, "\u2581ad": 550, "urn": 551, "\u2581your": 552, "://": 553, "are": 554, "\u2581all": 555, "ff": 556, "io": 557, "ime": 558, "\u2581er": 559, "\u2581which": 560, "ome": 561, "ont": 562, "\u2581par": 563, "\u2581ma": 564, "\u2581Y": 565, "\",": 566, "ft": 567, "ial": 568, "cc": 569, "ound": 570, "\u2581li": 571, "\u2581res": 572, "eth": 573, "\u2581app": 574, "ice": 575, "\u2581am": 576, "act": 577, "\u2581del": 578, "gr": 579, "ated": 580, "ier": 581, "\u2581ab": 582, "\u2581et": 583, "ally": 584, "..": 585, "port": 586, "ik": 587, "\u2581per": 588, "ser": 589, "ll": 590, "ign": 591, "one": 592, "\u2581di": 593, "ary": 594, "ition": 595, "ma": 596, "get": 597, "\u2581lo": 598, "\u2581val": 599, "\u2581Q": 600, "ran": 601, "ence": 602, "\u2581work": 603, "ip": 604, "\u2581&": 605, "\u2581his": 606, "\u2581use": 607, "der": 608, "\u2581will": 609, "ize": 610, "low": 611, "\u2581Ch": 612, "\u2581get": 613, "ide": 614, "ous": 615, "ink": 616, "ung": 617, "ec": 618, "ug": 619, "res": 620, "\u2581no": 621, "cl": 622, "\u2581ro": 623, "\u2581one": 624, "tt": 625, "du": 626, "\u2581up": 627, "\u2581ob": 628, "we": 629, "ery": 630, "iel": 631, "ob": 632, "ian": 633, "\u2581out": 634, "\u2581pl": 635, "\u2581new": 636, "\u2581+": 637, "ry": 638, "oth": 639, "ther": 640, "\u2581would": 641, "\u2581ser": 642, "text": 643, "\u2581there": 644, "ish": 645, "\u2581set": 646, "\u2581@": 647, "\u2581te": 648, "ex": 649, "\u2581return": 650, "ail": 651, "\u2581any": 652, "',": 653, "ale": 654, "\u2581when": 655, "ib": 656, "\u2581go": 657, "ance": 658, "\u2581had": 659, "\u2581comp": 660, "\u2581has": 661, "\u2581pre": 662, "\u2581part": 663, "\u2581die": 664, "\u2581like": 665, "ray": 666, "\u2581dis": 667, "\u2581man": 668, "\u2581then": 669, "\u2581class": 670, "pro": 671, "\u2581po": 672, "\u2581using": 673, "eb": 674, "\u2581code": 675, "own": 676, "\u2581some": 677, "ces": 678, "\u2581au": 679, "\u2581col": 680, "\u2581\u2013": 681, "up": 682, "ons": 683, "\u2581add": 684, "iss": 685, "val": 686, "les": 687, "\u2581Z": 688, "row": 689, "ear": 690, "ations": 691, "ah": 692, "que": 693, "ank": 694, "\u2581sp": 695, "sk": 696, "ew": 697, "ann": 698, "\u2581\u2014": 699, "ace": 700, "\u2581need": 701, "ien": 702, "ough": 703, "\u2581def": 704, "ij": 705, "ern": 706, "\u2581what": 707, "wo": 708, "\u2581es": 709, "bo": 710, "az": 711, "erm": 712, "led": 713, "ten": 714, "set": 715, "\u2581comm": 716, "sh": 717, "\u2581/": 718, "\u2581data": 719, "\u2581str": 720, "ose": 721, "ven": 722, "...": 723, "ick": 724, "ix": 725, "par": 726, "\u2581want": 727, "ng": 728, "ote": 729, "\u2581gr": 730, "\u2581du": 731, "\u2581.": 732, "und": 733, "\u2581only": 734, "\u2581sa": 735, "ely": 736, "vers": 737, "\u2581ent": 738, "ava": 739, "ton": 740, "\u2581should": 741, "ement": 742, "\u2581form": 743, "\u2581also": 744, "\u2581sc": 745, "ings": 746, "\u2581kn": 747, "\u2581were": 748, "ss": 749, "ise": 750, "\u2581they": 751, "ond": 752, "\u2581sol": 753, "\u2581more": 754, "\u2581her": 755, "\u2581_": 756, "ze": 757, "ado": 758, "ull": 759, "ger": 760, "be": 761, "\u2581other": 762, "ict": 763, "\u2581how": 764, "\u2581x": 765, "\u2581che": 766, "\u2581just": 767, "ific": 768, "ree": 769, "\u2581time": 770, "app": 771, "ark": 772, "ical": 773, "\u2581first": 774, "\u2581int": 775, "ta": 776, "ors": 777, "rac": 778, "\u2581ag": 779, "\u2581does": 780, "yn": 781, "read": 782, "ual": 783, "ys": 784, "\u2581em": 785, "vel": 786, "over": 787, "ym": 788, "\u2581them": 789, "\u2581into": 790, "\u2581its": 791, "ese": 792, "\u2581public": 793, "\u2581den": 794, "of": 795, "\u2581over": 796, "\u2581fil": 797, "inal": 798, "\u2581il": 799, "\u2581way": 800, "ica": 801, "itt": 802, "uch": 803, "\u2581where": 804, "org": 805, "https": 806, "\u2581vo": 807, "\u2581value": 808, "eng": 809, "ied": 810, "me": 811, "\u2581inter": 812, "ater": 813, "\u2581their": 814, "\u2581bet": 815, "\u2581sub": 816, "\u2581don": 817, "ty": 818, "\u2581try": 819, "\u2581tra": 820, "\u2581same": 821, "ep": 822, "\u2581two": 823, "\u2581name": 824, "old": 825, "let": 826, "\u2581sim": 827, "sp": 828, "\u2581av": 829, "ey": 830, "\u2581could": 831, "\u2581cor": 832, "\u2581acc": 833, "ays": 834, "si": 835, "ues": 836, "\u2581act": 837, "\u2581bo": 838, "\u2581som": 839, "\u2581about": 840, "land": 841, "mer": 842, "\u2581list": 843, "cal": 844, "\u2581na": 845, "na": 846, "\u2581who": 847, "\u2581X": 848, "ator": 849, "\u2581been": 850, "\u2581run": 851, "\u2581cl": 852, "\u2581reg": 853, "\u2581know": 854, "\u2581see": 855, "\u2581him": 856, "ning": 857, "ates": 858, "fore": 859, "ions": 860, "\u2581hel": 861, "ute": 862, "\u2581rem": 863, "ner": 864, "\u2581under": 865, "hr": 866, "\u2581end": 867, "\u2581att": 868, "ina": 869, "son": 870, "\u2581follow": 871, "\u2581rel": 872, "\u2581look": 873, "\u2581problem": 874, "\u2581van": 875, "co": 876, "ca": 877, "ada": 878, "\":": 879, "amb": 880, "\u2581aut": 881, "\u2581result": 882, "\u2581may": 883, "):": 884, "red": 885, "po": 886, "att": 887, "ced": 888, "\u2581type": 889, "\u2581than": 890, "\u2581cons": 891, "uf": 892, "\u2581question": 893, "igh": 894, "ins": 895, "den": 896, "\u2581da": 897, "\u2581ver": 898, "oh": 899, "ude": 900, "\u2581ra": 901, "\u2581after": 902, "amp": 903, "ash": 904, "\u2581rec": 905, "ax": 906, "ament": 907, "its": 908, "man": 909, "che": 910, "aj": 911, "\u2581gener": 912, "\u2581id": 913, "ages": 914, "fo": 915, "br": 916, "\u2581she": 917, "\u2581una": 918, "eta": 919, "log": 920, "\u2581sur": 921, "arg": 922, "\u2581--": 923, "min": 924, "\u2581line": 925, "ics": 926, "very": 927, "add": 928, "\u2581case": 929, "\u2581make": 930, "\u2581cal": 931, "\u2581pass": 932, "net": 933, ".\"": 934, "no": 935, "ating": 936, "ato": 937, "line": 938, "\u2581ass": 939, "\u2581ed": 940, "other": 941, "ative": 942, "wn": 943, "\u2581answer": 944, "\u2581let": 945, "\u2581pe": 946, "ents": 947, "\u2581fe": 948, "ince": 949, "ni": 950, "ider": 951, "\u2581test": 952, "\u2581here": 953, "\u2581call": 954, "\u2581pol": 955, "ait": 956, "\u2581back": 957, "ho": 958, "ress": 959, "\u2581did": 960, "ting": 961, "\u2581dem": 962, "lace": 963, "right": 964, "ren": 965, "\u2581each": 966, "cy": 967, "\u2581ac": 968, "ask": 969, "\u2581off": 970, "\u2581find": 971, "\u2581now": 972, "work": 973, "dd": 974, "urs": 975, "ake": 976, "ule": 977, "\u2581point": 978, "aut": 979, "\u2581trans": 980, "\u2581co": 981, "\u2581read": 982, "\u2581used": 983, "ari": 984, "eter": 985, "ever": 986, "ined": 987, "\u2581such": 988, "ful": 989, "\u2581dist": 990, "\u2581bu": 991, "je": 992, "\u2581prov": 993, "bb": 994, "ward": 995, "erson": 996, "anks": 997, "wh": 998, "not": 999, "ka": 1000, "als": 1001, "\u2581bel": 1002, "fr": 1003, "\u2581example": 1004, "amil": 1005, "\u2581\u201c": 1006, "\u2581think": 1007, "\u2581tem": 1008, "\u2581number": 1009, "\u2581si": 1010, "imes": 1011, "my": 1012, "ler": 1013, "\u2581hand": 1014, "za": 1015, "\u2581sch": 1016, "vo": 1017, "this": 1018, "\u2581start": 1019, "\u2581war": 1020, "\u2581help": 1021, "ts": 1022, "\u2581char": 1023, "\u2581ph": 1024, "\u2581min": 1025, "els": 1026, "\u2581mit": 1027, "any": 1028, "ique": 1029, "da": 1030, "ef": 1031, "\u2581gre": 1032, "orn": 1033, "\u2581ind": 1034, "\u2581post": 1035, "vi": 1036, "\u2581user": 1037, "\u2581>": 1038, "lick": 1039, "\u2581very": 1040, "\u2581gu": 1041, "\u2581dur": 1042, "ek": 1043, "ico": 1044, "\u2581dat": 1045, "\u2581different": 1046, "\u2581check": 1047, "\u2581fr": 1048, "\u2581text": 1049, "rag": 1050, "\u2581every": 1051, "\u2581before": 1052, "\u2581fin": 1053, "\u2581these": 1054, "\u2581det": 1055, "\u2581je": 1056, "ats": 1057, "\u2581again": 1058, "aw": 1059, "Ch": 1060, "for": 1061, "pre": 1062, "ida": 1063, "ny": 1064, "ased": 1065, "air": 1066, "\u2581long": 1067, "\u2581second": 1068, "ines": 1069, "\u2581found": 1070, "ui": 1071, "new": 1072, "go": 1073, "aus": 1074, "ody": 1075, "\u2581son": 1076, "ero": 1077, "ved": 1078, "\u2581right": 1079, "\u2581following": 1080, "\u2581said": 1081, "ott": 1082, "ars": 1083, "\u2581br": 1084, "use": 1085, "\u2581show": 1086, "cia": 1087, "\u2581direct": 1088, "ms": 1089, "\u2581exp": 1090, "iter": 1091, "mp": 1092, "men": 1093, "\u2581well": 1094, "zy": 1095, "\u2581met": 1096, "une": 1097, "\u2581link": 1098, "\u2581between": 1099, "\u2581through": 1100, "\u2581while": 1101, "the": 1102, "\u2581something": 1103, "\u2581most": 1104, "sc": 1105, "uss": 1106, "\u2581car": 1107, "\u2581sm": 1108, "ano": 1109, "va": 1110, "\u2581true": 1111, "\u2581much": 1112, "era": 1113, "ited": 1114, "\u2581?": 1115, "fl": 1116, "way": 1117, "\u2581self": 1118, "\u2581even": 1119, "\u2581ke": 1120, "emb": 1121, "\u2581table": 1122, "ene": 1123, "\u2581mon": 1124, "\u2581dec": 1125, "\u2581still": 1126, "ism": 1127, "by": 1128, "\u2581med": 1129, "\u2581comple": 1130, "ww": 1131, "\u2581art": 1132, "ron": 1133, "\u2581down": 1134, "back": 1135, "\u2581year": 1136, "pi": 1137, "\u2581rep": 1138, "www": 1139, "\u2581being": 1140, "\".": 1141, "\u2581cent": 1142, "bar": 1143, "ana": 1144, "\u2581solution": 1145, "\u2581fl": 1146, "\u2581create": 1147, "ici": 1148, "unt": 1149, "ason": 1150, "\u2581non": 1151, "ane": 1152, "\u2581ins": 1153, "ader": 1154, "\u2581main": 1155, "ower": 1156, "uc": 1157, "\u2581else": 1158, "ets": 1159, "ident": 1160, ".,": 1161, ",\"": 1162, "\u2581fo": 1163, "\u2581para": 1164, "ral": 1165, "var": 1166, "\u2581play": 1167, "ically": 1168, "\u2581both": 1169, "ken": 1170, "\u2581open": 1171, "\u2581)": 1172, "fe": 1173, "\u2581without": 1174, "\u2581zu": 1175, "\u2581http": 1176, "\u2581word": 1177, "\u2581change": 1178, "\u2581works": 1179, "\u2581ge": 1180, "\u2581!": 1181, "\u2581event": 1182, "ando": 1183, "rem": 1184, "\u2581field": 1185, "ving": 1186, "\u2581our": 1187, "\u2581made": 1188, "\u2581men": 1189, "ais": 1190, "cent": 1191, "ja": 1192, "\u2581mar": 1193, "\u2581aus": 1194, "ole": 1195, "\u2581mat": 1196, "\u2581view": 1197, "\u2581good": 1198, "\u2581many": 1199, "ben": 1200, "\u2581system": 1201, "ino": 1202, "\u2581another": 1203, "\u2581rest": 1204, "user": 1205, "ility": 1206, "ai": 1207, "\u2581might": 1208, "\u2581order": 1209, "\u2581sign": 1210, "\u2581sing": 1211, "\u2581trying": 1212, "\u2581page": 1213, "\u2581must": 1214, "\u2581values": 1215, "\u2581key": 1216, "ible": 1217, "].": 1218, "\u2581program": 1219, "\u2581say": 1220, "ache": 1221, "\u2581last": 1222, "\u2581doesn": 1223, "\u2581term": 1224, "ateg": 1225, ".)": 1226, "ling": 1227, "\u2581tak": 1228, "\u2581sure": 1229, "\u2581real": 1230, "\u2581web": 1231, "\u2581current": 1232, "ments": 1233, "ots": 1234, "\u2581exist": 1235, "do": 1236, "\u2581las": 1237, "\u2581version": 1238, "ager": 1239, "ush": 1240, "\u2581high": 1241, "gen": 1242, "\u2581ste": 1243, "\u2581local": 1244, "\u2581process": 1245, "ized": 1246, "\u2581tried": 1247, "\u2581best": 1248, "\u2581model": 1249, "\u2581those": 1250, "ities": 1251, "\u2581own": 1252, "lin": 1253, "\u2581,": 1254, "\u2581um": 1255, "\u2581put": 1256, "gy": 1257, "raf": 1258, "ants": 1259, "ido": 1260, "ade": 1261, "ense": 1262, "\u2581row": 1263, "\u2581possible": 1264, "\u2581since": 1265, "ctions": 1266, "map": 1267, "ves": 1268, "ared": 1269, "\u2581image": 1270, "\u2581conf": 1271, "ures": 1272, "ium": 1273, "ether": 1274, "itu": 1275, "ns": 1276, "ki": 1277, "\u2581match": 1278, "alt": 1279, "\u2581vis": 1280, "\u2581bl": 1281, "\u2581called": 1282, "ura": 1283, "eme": 1284, "\u2581request": 1285, "\u2581port": 1286, "\u2581instead": 1287, "hor": 1288, "ume": 1289, "\u2581why": 1290, "\u2581person": 1291, "\u2581...": 1292, "\u2581private": 1293, "ita": 1294, "\u2581old": 1295, "ti": 1296, "\u2581above": 1297, "ks": 1298, "\u2581come": 1299, "\u2581https": 1300, "\u2581build": 1301, "ito": 1302, "\u2581consider": 1303, "\u2581;": 1304, "\u2581place": 1305, "\u2581project": 1306, "ences": 1307, "\u2581sk": 1308, "orth": 1309, "atal": 1310, "irc": 1311, "sum": 1312, "\u2581cour": 1313, "\u2581too": 1314, "\u2581false": 1315, "\u2581fun": 1316, "ood": 1317, "\u2581mean": 1318, "igen": 1319, "\u2581state": 1320, "\u2581great": 1321, "enn": 1322, "bin": 1323, "oz": 1324, "\u2581won": 1325, "\u2581fact": 1326, "\u2581cap": 1327, "istor": 1328, "ku": 1329, "ither": 1330, "\u2581ou": 1331, "\u2581take": 1332, "\u2581access": 1333, "ization": 1334, "\u2581appro": 1335, "\u2581mak": 1336, "af": 1337, "\u2581ref": 1338, "su": 1339, "\u2581expect": 1340, "ters": 1341, "ified": 1342, "tes": 1343, "med": 1344, "ini": 1345, "inci": 1346, "\u2581left": 1347, "\u2581cr": 1348, "\u2581given": 1349, "ican": 1350, "\u2581final": 1351, "itions": 1352, "uro": 1353, "\u2581present": 1354, "ric": 1355, "\u2581lar": 1356, "bl": 1357, "idd": 1358, "ora": 1359, "\u2581three": 1360, "jo": 1361, "\u2581far": 1362, "\u2581little": 1363, "ati": 1364, "\u2581able": 1365, "less": 1366, "\u2581path": 1367, "\u2581pres": 1368, "\u2581issue": 1369, "time": 1370, "ige": 1371, "ams": 1372, "alk": 1373, "ii": 1374, "pen": 1375, "\u2581sl": 1376, "\u2581ask": 1377, "\u2581top": 1378, "ides": 1379, "\u2581better": 1380, "\u2581ce": 1381, "\u2581fa": 1382, "ness": 1383, "cer": 1384, "py": 1385, "\u2581understand": 1386, "her": 1387, "##": 1388, "\u2581child": 1389, "\u2581application": 1390, "rs": 1391, "\u2581really": 1392, "ba": 1393, "\u2581hab": 1394, "\u2581mus": 1395, "\u2581support": 1396, "\u2581people": 1397, "\u2581already": 1398, "\u2581done": 1399, "dem": 1400, "\u2581disc": 1401, "\u2581mil": 1402, "\u2581stand": 1403, "\u2581group": 1404, "\u2581small": 1405, "\u2581mag": 1406, "\u2581single": 1407, "\u2581ear": 1408, "ilar": 1409, "ley": 1410, "\u2581pas": 1411, "itch": 1412, "\u2581always": 1413, "\u2581head": 1414, "\u2581ing": 1415, "ha": 1416, "ily": 1417, "\u2581got": 1418, "iled": 1419, "\u2581never": 1420, "ores": 1421, "\u2581bas": 1422, "ios": 1423, "\u2581give": 1424, "\u2581pat": 1425, "angu": 1426, "\u2581sw": 1427, "\u2581km": 1428, "ena": 1429, "ji": 1430, "\u2581below": 1431, "\u2581record": 1432, "ital": 1433, "\u2581imp": 1434, "mit": 1435, "\u2581nov": 1436, "bu": 1437, "\u2581super": 1438, "\u2581dom": 1439, "\u2581write": 1440, "\u2581years": 1441, "\u2581original": 1442, "ega": 1443, "\u2581seems": 1444, "\u2581next": 1445, "\u2581Ne": 1446, "\u2581ve": 1447, "atic": 1448, "hat": 1449, "mi": 1450, "\u2581day": 1451, "iction": 1452, "\u2581though": 1453, "\u2581information": 1454, "ster": 1455, "cies": 1456, "oman": 1457, "\u2581lim": 1458, "ately": 1459, "ula": 1460, "\u2581general": 1461, "\u2581upon": 1462, "zo": 1463, "\u2581prom": 1464, "\u2581turn": 1465, "\u2581af": 1466, "ara": 1467, "ware": 1468, "zi": 1469, "\u2581sum": 1470, "\u2581having": 1471, "sl": 1472, "with": 1473, "gu": 1474, "\u2581bro": 1475, "ending": 1476, "\u2581success": 1477, "\u2581deb": 1478, "inn": 1479, "\u2581simple": 1480, "ival": 1481, "\u2581care": 1482, "ban": 1483, "ram": 1484, "lim": 1485, "\u2581tre": 1486, "\u2581Je": 1487, "\u2581results": 1488, "\u2581bit": 1489, "body": 1490, "mu": 1491, "ony": 1492, "\u2581bar": 1493, "\u2581doing": 1494, "\u2581prof": 1495, "\u2581position": 1496, "ema": 1497, "ali": 1498, "lev": 1499, "\u2581cannot": 1500, "\u2581coun": 1501, "\u2581ang": 1502, "\u2581appear": 1503, "cor": 1504, "ided": 1505, "atter": 1506, "\u2581side": 1507, "\u2581mem": 1508, "\u2581within": 1509, "\u2581date": 1510, "ili": 1511, "\u2581message": 1512, "\u2581during": 1513, "\u2581gra": 1514, "\u2581tell": 1515, "ete": 1516, "\u2581pu": 1517, "\u2581red": 1518, "\u2581thing": 1519, "ires": 1520, "\u2581sent": 1521, "\u2581service": 1522, "rel": 1523, "\u2581going": 1524, "\u2581later": 1525, "uk": 1526, "ona": 1527, "\u2581fine": 1528, "\u2581develop": 1529, "\u2581az": 1530, "ples": 1531, "\u2581specific": 1532, "ently": 1533, "\u2581film": 1534, "ges": 1535, "\u2581things": 1536, "\u2581thought": 1537, "\u2581added": 1538, "ils": 1539, "\u2581cu": 1540, "irt": 1541, "\u2581based": 1542, "\u2581mo": 1543, "\u2581running": 1544, "amma": 1545, "ious": 1546, "\u2581search": 1547, "\u2581wrong": 1548, "\u2581until": 1549, "\u2581once": 1550, "arr": 1551, "\u2581against": 1552, "\u2581source": 1553, "arn": 1554, "api": 1555, "\u2581represent": 1556, "\u2581allow": 1557, "ended": 1558, "\u2581control": 1559, "cur": 1560, "wa": 1561, "\u2581inside": 1562, "\u2581reason": 1563, "sw": 1564, "\u2581mer": 1565, "\u2581effect": 1566, "des": 1567, "ulation": 1568, "\u2581similar": 1569, "\u2581mark": 1570, "\u2581content": 1571, "\u2581means": 1572, "amed": 1573, "\u2581getting": 1574, "uth": 1575, "head": 1576, "arm": 1577, "\u2581around": 1578, "\u2581clear": 1579, "ining": 1580, "\u2581polit": 1581, "\u2581seem": 1582, "\u2581life": 1583, "\u2581either": 1584, "\u2581few": 1585, "ria": 1586, "ury": 1587, "\u2581sus": 1588, "ired": 1589, "\u2581due": 1590, "\u2581bei": 1591, "\u2581break": 1592, "\u2581actually": 1593, "ones": 1594, "\u2581design": 1595, "\u2581property": 1596, "ality": 1597, "och": 1598, "ists": 1599, "ala": 1600, "\u2581custom": 1601, "\u2581ann": 1602, "\u2581organ": 1603, "\u2581os": 1604, "\u2581hard": 1605, "ko": 1606, "yl": 1607, "\u2581dev": 1608, "\u2581block": 1609, "\u2581map": 1610, "illa": 1611, "\u2581space": 1612, "hi": 1613, "\u2581large": 1614, "mat": 1615, "\u2581kind": 1616, "ances": 1617, "\u2581color": 1618, "\u2581character": 1619, "\u2581response": 1620, "yd": 1621, "ima": 1622, "\u2581va": 1623, "\u2581approach": 1624, "cted": 1625, "\u2581jo": 1626, "\u2581dal": 1627, "unk": 1628, "ola": 1629, "bit": 1630, "\u2581base": 1631, "\u2581idea": 1632, "\u2581dire": 1633, "sing": 1634, "\u2581near": 1635, "\u2581land": 1636, "\u2581names": 1637, "pped": 1638, "\u2581full": 1639, "\u2581etc": 1640, "\u2581came": 1641, "\u2581known": 1642, "\u2581total": 1643, "ology": 1644, "\u2581fre": 1645, "\u2581ten": 1646, "\u2581bes": 1647, "\u2581keep": 1648, "oph": 1649, "\u2581four": 1650, "\u2581via": 1651, "?\"": 1652, "image": 1653, "\u2581sem": 1654, "\u2581eng": 1655, "mar": 1656, "\u2581mor": 1657, "\u2581cell": 1658, "imal": 1659, "\u2581inf": 1660, "....": 1661, "\u2581door": 1662, "\u2581miss": 1663, "ira": 1664, "\u2581hat": 1665, "\u2581certain": 1666, "\u2581cho": 1667, "\u2581adv": 1668, "where": 1669, "\u2581looking": 1670, "\u2581times": 1671, "uto": 1672, "can": 1673, "\u2581nothing": 1674, "\u2581power": 1675, "\u2581ap": 1676, "ability": 1677, "\u2581anything": 1678, "ela": 1679, "\u2581pot": 1680, "\u2581less": 1681, "\u2581please": 1682, "\u2581style": 1683, "bt": 1684, "\u2581probably": 1685, "hn": 1686, "dom": 1687, "\u2581continu": 1688, "ls": 1689, "\u2581however": 1690, "\u2581book": 1691, "\u2581gl": 1692, "ives": 1693, "gi": 1694, "open": 1695, "\u2581cur": 1696, "\u2581era": 1697, "\u2581particular": 1698, "\u2581action": 1699, "\u2581include": 1700, "\u2581elements": 1701, "ards": 1702, "\u2581hum": 1703, "from": 1704, "hen": 1705, "ias": 1706, "gs": 1707, ".\u201d": 1708, "hand": 1709, "\u2581amb": 1710, "\u2581mot": 1711, "\u2581world": 1712, "ged": 1713, "\u2581several": 1714, "\u2581least": 1715, "down": 1716, "\u2581cas": 1717, "\u2581address": 1718, "\u2581statement": 1719, "ono": 1720, "\u2581level": 1721, "\u2581product": 1722, "\u2581course": 1723, "\u2581background": 1724, "\u2581ret": 1725, "ering": 1726, "most": 1727, "ites": 1728, "ga": 1729, "day": 1730, "\u2581tw": 1731, "\u2581moment": 1732, "\u2581fur": 1733, "pping": 1734, "\u2581rather": 1735, "\u2581site": 1736, "ani": 1737, "\u2581home": 1738, "\u2581short": 1739, "pa": 1740, "\u2581lead": 1741, "ished": 1742, "cing": 1743, "ording": 1744, "\u2581didn": 1745, "\u2581lot": 1746, "\u2581sat": 1747, "\u2581points": 1748, "\u2581pa": 1749, "ama": 1750, "\u2581enough": 1751, "ende": 1752, "iano": 1753, "\u2581remove": 1754, "iro": 1755, "\u2581whole": 1756, "ua": 1757, "pm": 1758, "uz": 1759, "\u2581tri": 1760, "ised": 1761, "oper": 1762, "board": 1763, "ination": 1764, "\u2581respect": 1765, "ham": 1766, "\u2581along": 1767, "\u2581task": 1768, "\u2581ev": 1769, "ras": 1770, "ump": 1771, "\u2581looks": 1772, "\u2581ok": 1773, "nu": 1774, "\u2581cost": 1775, "\u2581comment": 1776, "\u2581yet": 1777, "\u2581away": 1778, "\u2581Bi": 1779, "\u2581mind": 1780, "ky": 1781, "ging": 1782, "\u2581report": 1783, "aff": 1784, "sec": 1785, "\u2581ut": 1786, "\u2581neg": 1787, "md": 1788, "You": 1789, "alle": 1790, "\u2581isn": 1791, "\u2581copy": 1792, "\u2581went": 1793, "\u2581sam": 1794, "\u2581vi": 1795, "\u2581previous": 1796, "\u2581methods": 1797, "how": 1798, "ship": 1799, "\u2581itself": 1800, "\u2581mill": 1801, "olo": 1802, "\u2581elect": 1803, "ops": 1804, "\u2581network": 1805, "\u2581body": 1806, "\u2581Your": 1807, "\u2581light": 1808, "yes": 1809, "\u2581mention": 1810, "\u2581convert": 1811, "\u2581bus": 1812, "\u2581seen": 1813, "sim": 1814, "rat": 1815, "\u2581took": 1816, "\u2581common": 1817, "\u2581changes": 1818, "\u2581ju": 1819, "Is": 1820, "\u2581available": 1821, "osa": 1822, "\u2581hom": 1823, "\u2581account": 1824, "oo": 1825, "\u2581send": 1826, "\u2581nor": 1827, "\u2581target": 1828, "\u2581series": 1829, "\u2581himself": 1830, "anti": 1831, "\u2581ach": 1832, "ae": 1833, "\u2581sou": 1834, "\u2581og": 1835, "itar": 1836, "\u2581ant": 1837, "\u2581determ": 1838, "\u2581ess": 1839, "\u2581pri": 1840, "\u2581whether": 1841, "\u2581numbers": 1842, "\u2581shows": 1843, "\u2581house": 1844, "\u2581face": 1845, "\u2581including": 1846, "now": 1847, "\u2581pur": 1848, "mon": 1849, "\u2581band": 1850, "\u2581exactly": 1851, "fully": 1852, "\u2581makes": 1853, "pol": 1854, "\u2581required": 1855, "\u2581mi": 1856, "inc": 1857, "oto": 1858, "\u2581game": 1859, "\u2581quite": 1860, "ya": 1861, "\u2581school": 1862, "\u2581simply": 1863, "\u2581double": 1864, "\u2581aw": 1865, "umb": 1866, "\u2581ze": 1867, "\u2581period": 1868, "\u2581store": 1869, "\u2581worked": 1870, "\u2581happen": 1871, "ney": 1872, "\u2581close": 1873, "\u2581lie": 1874, "\u2581ir": 1875, "\u2581expected": 1876, "\u2581plan": 1877, "\u2581team": 1878, "ency": 1879, "\u2581words": 1880, "\u2581days": 1881, "ories": 1882, "sm": 1883, "oj": 1884, "!\"": 1885, "\u2581q": 1886, "\u2581ben": 1887, "iana": 1888, "\u2581provide": 1889, "used": 1890, "\u2581tamb": 1891, "\u2581mu": 1892, "\u2581free": 1893, "tab": 1894, "\u2581enter": 1895, "\u2581became": 1896, "ee": 1897, "\u2581making": 1898, "uni": 1899, "\u2581standard": 1900, "\u2581ever": 1901, "\u2581remain": 1902, "\u2581changed": 1903, "\u2581family": 1904, "\u2581cam": 1905, "\u2581dim": 1906, "\u2581press": 1907, "\u2581thanks": 1908, "\u2581written": 1909, "\u2581fire": 1910, "\u2581mis": 1911, ",\u201d": 1912, "\u2581section": 1913, "\u2581gi": 1914, "ford": 1915, "\u2581qual": 1916, "\u2581za": 1917, "\u2581har": 1918, "aar": 1919, "\u2581hor": 1920, "hip": 1921, "\u2581area": 1922, "\u2581others": 1923, "\u2581sil": 1924, "\u2581sav": 1925, "\u2581often": 1926, "\u2581tag": 1927, "ming": 1928, "\u2581sense": 1929, "\u2581interest": 1930, "iche": 1931, "\u2581types": 1932, "\u2581gives": 1933, "hal": 1934, "\u2581save": 1935, "\u2581alla": 1936, "\u2581says": 1937, "\u2581fu": 1938, "\u2581language": 1939, "iger": 1940, "uv": 1941, "\u2581shall": 1942, "\u2581water": 1943, "\u2581govern": 1944, "anz": 1945, "ators": 1946, "\u2581month": 1947, "ye": 1948, "\u2581important": 1949, "first": 1950, "\u2581bra": 1951, "ika": 1952, "ements": 1953, "ril": 1954, "\u2581young": 1955, "oma": 1956, "\u2581everything": 1957, "\u2581returned": 1958, "acy": 1959, "\u2581kon": 1960, "\u2581guess": 1961, "gt": 1962, "jen": 1963, "\u2581author": 1964, "see": 1965, "here": 1966, "\u2581entire": 1967, "\u2581directly": 1968, "\u2581mass": 1969, "\u2581users": 1970, "chi": 1971, "ands": 1972, "ori": 1973, "\u2581performance": 1974, "amer": 1975, "but": 1976, "\u2581lik": 1977, "\u2581dr": 1978, "\u2581condition": 1979, "imo": 1980, "rab": 1981, "\u2581half": 1982, "each": 1983, "\u2581hon": 1984, "\u2581together": 1985, "\u2581draw": 1986, "\u2581attempt": 1987, "\u2581needs": 1988, "\u2581normal": 1989, "last": 1990, "ila": 1991, "\u2581country": 1992, "\u2581built": 1993, "\u2581camp": 1994, "\u2581among": 1995, "\u2581cases": 1996, "\u2581named": 1997, "\u2581season": 1998, "\u2581nil": 1999, "\u2581special": 2000, "\u2581city": 2001, "\u2581article": 2002, "'.": 2003, "car": 2004, "abe": 2005, "\u2581law": 2006, "\u2581needed": 2007, "aries": 2008, "yr": 2009, "mm": 2010, "\u2581bad": 2011, "\u2581cast": 2012, "iga": 2013, "\u2581ren": 2014, "\u2581difference": 2015, "\u2581step": 2016, "\u2581move": 2017, "\u2581further": 2018, "\u2581children": 2019, "mo": 2020, "una": 2021, "wi": 2022, "\u2581almost": 2023, "aring": 2024, "light": 2025, "\u2581figure": 2026, "mt": 2027, "\u2581tele": 2028, "\u2581matter": 2029, "\u2581handle": 2030, "ored": 2031, "\u2581club": 2032, "\u2581fail": 2033, "\u2581location": 2034, "ago": 2035, "abil": 2036, "\u2581asked": 2037, "\u2581tab": 2038, "\u2581mal": 2039, "\u2581note": 2040, "\u2581saw": 2041, "lia": 2042, "\u2581sin": 2043, "\u2581feel": 2044, "\u2581Na": 2045, "\u2581mess": 2046, "\u2581related": 2047, "ami": 2048, "\u2581wait": 2049, "\u2581low": 2050, "\u2581ill": 2051, "war": 2052, "\u2581sal": 2053, "\u2581passed": 2054, "\u2581member": 2055, "nes": 2056, "dy": 2057, "\u2581received": 2058, "ango": 2059, "\u2581cle": 2060, "\u2581din": 2061, "\u2581strong": 2062, "\u2581ele": 2063, "\u2581cause": 2064, "\u2581images": 2065, "like": 2066, "anc": 2067, "\u2581front": 2068, "\u2581missing": 2069, "aria": 2070, "pres": 2071, "\u2581opp": 2072, "\u2581ci": 2073, "\u2581taken": 2074, "\u2581grand": 2075, "\u2581expression": 2076, "yal": 2077, "\u2581cover": 2078, "ako": 2079, "ota": 2080, "next": 2081, "\u2581black": 2082, "\u2581former": 2083, "\u2581night": 2084, "\u2581express": 2085, "\u2581third": 2086, "\u2581major": 2087, "\u2581believe": 2088, "\u2581status": 2089, "unc": 2090, "\u2581population": 2091, "\u2581cin": 2092, "lar": 2093, "\u2581kom": 2094, "\u2581kil": 2095, "cks": 2096, "\u2581started": 2097, "\u2581began": 2098, "istic": 2099, "\u2581music": 2100, "\u2581dig": 2101, "\u2581website": 2102, "\u2581jun": 2103, "which": 2104, "\u2581soon": 2105, "\u2581week": 2106, "\u2581town": 2107, "using": 2108, "udi": 2109, "posed": 2110, "jar": 2111, "\u2581bi": 2112, "\u2581avoid": 2113, "\u2581easy": 2114, "\u2581father": 2115, "\u2581alle": 2116, "\u2581white": 2117, "\u2581national": 2118, "\u2581air": 2119, "\u2581big": 2120, "\u2581extra": 2121, "ania": 2122, "\u2581hold": 2123, "iti": 2124, "\u2581center": 2125, "\u2581across": 2126, "\u2581song": 2127, "\u2581problems": 2128, "\u2581six": 2129, "ids": 2130, "\u2581tor": 2131, "\u2581sept": 2132, "\u2581decl": 2133, "\u2581gave": 2134, "\u2581player": 2135, "amm": 2136, "\u2581someone": 2137, "ih": 2138, "\u2581video": 2139, "\u2581complete": 2140, "\u2581yes": 2141, "\u2581email": 2142, "\u2581regard": 2143, "\u2581force": 2144, "\u2581cross": 2145, "\u2581death": 2146, "\u2581takes": 2147, "ju": 2148, "iny": 2149, "\u2581details": 2150, "\u2581perfect": 2151, "\u2581held": 2152, "\u2581past": 2153, "\u2581provided": 2154, "\u2581gets": 2155, "\u2581nu": 2156, "fin": 2157, "\u2581become": 2158, "\u2581history": 2159, "\u2581terms": 2160, "\u2581events": 2161, "\u2581hope": 2162, "\u2581subject": 2163, "\u2581creating": 2164, "sa": 2165, "cu": 2166, "band": 2167, "\u2581job": 2168, "\u2581wonder": 2169, "\u2581company": 2170, "\u2581writing": 2171, "pat": 2172, "\u2581according": 2173, "eli": 2174, "\u2581stop": 2175, "\u2581age": 2176, "\u2581pretty": 2177, "atives": 2178, "\u2581ur": 2179, "\u2581whose": 2180, "\u2581station": 2181, "\u2581arm": 2182, "\u2581eyes": 2183, "oli": 2184, "win": 2185, "chan": 2186, "\u2581ho": 2187, "\u2581learn": 2188, "\u2581pal": 2189, "\u2581region": 2190, "\u2581friend": 2191, "\u2581\u2018": 2192, "\u2581wanted": 2193, "\u2581border": 2194, "\u2581download": 2195, "just": 2196, "\u2581members": 2197, "\u2581pay": 2198, "\u2581cer": 2199, "\u2581looked": 2200, "\u2581questions": 2201, "mal": 2202, "\u2581various": 2203, "\u2581fast": 2204, "\u2581environment": 2205, "\u2581necessary": 2206, "\u2581reading": 2207, "home": 2208, "\u2581difficult": 2209, "\u2581heart": 2210, "\u2581talk": 2211, "\u2581imm": 2212, "\u2581human": 2213, "\u2581building": 2214, "\u2581fund": 2215, "sin": 2216, "\u2581failed": 2217, "\u2581nation": 2218, "\u2581amount": 2219, "\u2581social": 2220, "oni": 2221, "\u2581mentioned": 2222, "\u2581currently": 2223, "izing": 2224, "lam": 2225, "\u2581tu": 2226, "avy": 2227, "\u2581relations": 2228, "\u2581comes": 2229, "\u2581direction": 2230, "\u2581played": 2231, "\u2581five": 2232, "\u2581led": 2233, "\u2581tim": 2234, "\u2581attack": 2235, "uri": 2236, "has": 2237, "\u2581discuss": 2238, "rik": 2239, "\u2581love": 2240, "anto": 2241, "aba": 2242, "bi": 2243, "agen": 2244, "some": 2245, "\u2581individual": 2246, "\u2581deal": 2247, "\u2581outside": 2248, "rio": 2249, "\u2581business": 2250, "\u2581google": 2251, "gar": 2252, "\u2581modern": 2253, "\u2581win": 2254, "han": 2255, "formation": 2256, "\u2581unique": 2257, "ying": 2258, "\u2581windows": 2259, "\u2581distance": 2260, "\u2581dar": 2261, "\u2581told": 2262, "\u2581calling": 2263, "\u2581future": 2264, "\u2581described": 2265, "fa": 2266, "\u2581tree": 2267, "\u2581wrote": 2268, "\u2581nature": 2269, "\u2581mut": 2270, "\u2581therefore": 2271, "\u2581usually": 2272, "\u2581released": 2273, "\u2581Mi": 2274, "\u2581jan": 2275, "\u2581letter": 2276, "\u2581maybe": 2277, "more": 2278, "\u2581mas": 2279, "\u2581likely": 2280, "\u2581material": 2281, "\u2581longer": 2282, "bal": 2283, "\u2581inc": 2284, "\u2581mai": 2285, "\u2581global": 2286, "\u2581viol": 2287, "\u2581respons": 2288, "\u2581considered": 2289, "\u2581prevent": 2290, "nik": 2291, "\u2581nur": 2292, "owa": 2293, "icial": 2294, "\u2581natural": 2295, "zz": 2296, "\u2581taking": 2297, "\u2581dam": 2298, "\u2581issues": 2299, "rim": 2300, "\u2581parts": 2301, "\u2581mother": 2302, "\u2581none": 2303, "\u2581followed": 2304, "\u2581explain": 2305, "\u2581paper": 2306, "ws": 2307, "\u2581mm": 2308, "arc": 2309, "make": 2310, "\u2581features": 2311, "\u2581late": 2312, "\u2581flo": 2313, "kar": 2314, "\u2581pet": 2315, "\u2581cut": 2316, "\u2581track": 2317, "\u2581inde": 2318, "bes": 2319, "uge": 2320, "alis": 2321, "\u2581fi": 2322, "\u2581lost": 2323, "\u2581room": 2324, "\u2581calls": 2325, "\u2581village": 2326, "\u2581football": 2327, "\u2581live": 2328, "\u2581behind": 2329, "gers": 2330, "\u2581media": 2331, "that": 2332, "\u2581rule": 2333, "acc": 2334, "\u2581closed": 2335, "\u2581goes": 2336, "\u2581ca": 2337, "eds": 2338, "\u2581tool": 2339, "\u2581services": 2340, "ously": 2341, "\u2581ru": 2342, "oro": 2343, "\u2581production": 2344, "\u2581sn": 2345, "\u2581star": 2346, "\u2581ko": 2347, "cha": 2348, "what": 2349, "hy": 2350, "bs": 2351, "\u2581mac": 2352, "\u2581story": 2353, "\u2581symbol": 2354, "asing": 2355, "\u2581west": 2356, "ians": 2357, "\u2581master": 2358, "\u2581ways": 2359, "\u2581pick": 2360, "enk": 2361, "fs": 2362, "\u2581development": 2363, "\u2581True": 2364, "\u2581conditions": 2365, "\u2581operation": 2366, "anda": 2367, "\u2581energy": 2368, "\u2581women": 2369, "\u2581meet": 2370, "well": 2371, "\u2581government": 2372, "\u2581card": 2373, "\u2581dru": 2374, "\u2581han": 2375, "ising": 2376, "\u2581states": 2377, "\u2581research": 2378, "\u2581happens": 2379, "\u2581clean": 2380, "\u2581easily": 2381, "\u2581iz": 2382, "\u2581offer": 2383, "\u2581ground": 2384, "unn": 2385, "\u2581leave": 2386, "\u2581tal": 2387, "\u2581popular": 2388, "igo": 2389, "\u2581located": 2390, "ulate": 2391, "\u2581join": 2392, "\u2581claim": 2393, "\u2581although": 2394, "\u2581Ba": 2395, "\u2581engine": 2396, "\u2581rom": 2397, "\u2581prime": 2398, "\u2581dan": 2399, "\u2581whom": 2400, "\u2581behavior": 2401, "\u2581pun": 2402, "\u2581sometimes": 2403, "\u2581ment": 2404, "\u2581sound": 2405, "di": 2406, "\u2581themselves": 2407, "\u2581ans": 2408, "\u2581allowed": 2409, "\u2581turned": 2410, "\u2581answers": 2411, "\u2581heard": 2412, "lu": 2413, "then": 2414, "dp": 2415, "\u2581woman": 2416, "wood": 2417, "\u2581international": 2418, "\u2581addition": 2419, "\u2581higher": 2420, "\u2581active": 2421, "\u2581myself": 2422, "del": 2423, "mut": 2424, "oon": 2425, "\u2581moved": 2426, "\u2581reach": 2427, ".'": 2428, "overn": 2429, "\u2581achieve": 2430, "uda": 2431, "only": 2432, "\u2581hours": 2433, "\u2581indeed": 2434, "\u2581fit": 2435, "\u2581official": 2436, "\u2581share": 2437, "\u2581minutes": 2438, "ao": 2439, "gan": 2440, "\u2581starting": 2441, "\u2581party": 2442, "\u2581lin": 2443, "\u2581tour": 2444, "ds": 2445, "you": 2446, "\u2581brought": 2447, "\u2581role": 2448, "\u2581..": 2449, "hib": 2450, "\u2581born": 2451, "\u2581ran": 2452, "year": 2453, "\u2581knew": 2454, "\u2581wor": 2455, "\u2581published": 2456, "\u2581positive": 2457, "\u2581forward": 2458, "enta": 2459, "rian": 2460, "eless": 2461, "\u2581wish": 2462, "oca": 2463, "onia": 2464, "\u2581loss": 2465, "\u2581bal": 2466, "\u2581fall": 2467, "ened": 2468, "\u2581coming": 2469, "\u2581died": 2470, "\u2581situation": 2471, "\u2581purpose": 2472, "\u2581showing": 2473, "\u2581completely": 2474, "bd": 2475, "\u2581thank": 2476, "\u2581tom": 2477, "\u2581remember": 2478, "\u2581poor": 2479, "\u2581century": 2480, "lan": 2481, "\u2581groups": 2482, "\u2581district": 2483, "\u2581changing": 2484, "\u2581deep": 2485, "imate": 2486, "\u2581visit": 2487, "\u2581bug": 2488, "\u2581opened": 2489, "bas": 2490, "\u2581dark": 2491, "iling": 2492, "\u2581watch": 2493, "\u2581release": 2494, "\u2581learning": 2495, "\u2581whatever": 2496, "\u2581road": 2497, "\u2581wife": 2498, "\u2581fair": 2499, "\u2581grow": 2500, "\u2581rate": 2501, "iforn": 2502, "\u2581study": 2503, "\u2581hands": 2504, "\u2581lay": 2505, "\u2581sun": 2506, "\u2581steps": 2507, "\u2581jud": 2508, "\u2581nem": 2509, "\u2581church": 2510, "\u2581comments": 2511, "\u2581bed": 2512, "\u2581meaning": 2513, "bel": 2514, "\u2581computer": 2515, "\u2581affect": 2516, "hood": 2517, "rage": 2518, "iza": 2519, "\u2581cat": 2520, "uta": 2521, "\u2581north": 2522, "\u2581alert": 2523, "\u2581rev": 2524, "\u2581blo": 2525, "\u2581president": 2526, "rupt": 2527, "\u2581walk": 2528, "\u2581training": 2529, "aur": 2530, "based": 2531, "\u2581asking": 2532, "\u2581progress": 2533, "\u2581phot": 2534, "pc": 2535, "\u2581ones": 2536, "aging": 2537, "\u2581choose": 2538, "\u2581beginning": 2539, "\u2581served": 2540, "\u2581continue": 2541, "\u2581pain": 2542, "\u2581counter": 2543, "\u2581giving": 2544, "!!": 2545, "ifi": 2546, "\u2581ni": 2547, "\u2581meant": 2548, "asi": 2549, "\u2581kan": 2550, "iful": 2551, "jer": 2552, "kk": 2553, "\u2581teach": 2554, "\u2581square": 2555, "\u2581rules": 2556, "\u2581bur": 2557, "\u2581nam": 2558, "\u2581vict": 2559, "\u2581gal": 2560, "hu": 2561, "\u2581money": 2562, "look": 2563, "\u2581editor": 2564, "akes": 2565, "\u2581sen": 2566, "\u2581associated": 2567, "\u2581practice": 2568, "oke": 2569, "anta": 2570, "zu": 2571, "\u2581contact": 2572, "\u2581bring": 2573, "\u2581king": 2574, "\u2581security": 2575, "\u2581basic": 2576, "kow": 2577, "alo": 2578, "\u2581tur": 2579, "\u2581ideas": 2580, "\u2581premier": 2581, "itation": 2582, "\u2581secret": 2583, "after": 2584, "\u2581software": 2585, "\u2581sed": 2586, "anal": 2587, "\u2581gem": 2588, "\u2581south": 2589, "\u2581worth": 2590, "\u2581felt": 2591, "\u2581ny": 2592, "\u2581towards": 2593, "ained": 2594, "\u2581rank": 2595, "\u2581dead": 2596, "\u2581hit": 2597, "\u2581mid": 2598, "\u2581finally": 2599, "\u2581especially": 2600, "\u2581tut": 2601, "\u2581receive": 2602, "\u2581radio": 2603, "\u2581saved": 2604, "\u2581mur": 2605, "\u2581gar": 2606, "nab": 2607, "hm": 2608, "\u2581messages": 2609, "inf": 2610, "\u2581sea": 2611, "\u2581sans": 2612, "\u2581pra": 2613, "kom": 2614, "\u2581effort": 2615, "\u2581hour": 2616, "fi": 2617, "\u2581anci": 2618, "\u2581pan": 2619, "\u2581morning": 2620, "\u2581hi": 2621, "ije": 2622, "\u2581blue": 2623, "\u2581middle": 2624, "\u2581shared": 2625, "uw": 2626, "\u2581experience": 2627, "\u2581significant": 2628, "cr": 2629, "\u2581million": 2630, "\u2581dalla": 2631, "\u2581thinking": 2632, "oe": 2633, "\u2581broad": 2634, "\u2581couple": 2635, "\u2581goal": 2636, "hab": 2637, "blog": 2638, "\u2581voice": 2639, "\u2581factor": 2640, "\u2581personal": 2641, "\u2581god": 2642, "aa": 2643, "\u2581choice": 2644, "kit": 2645, "\u2581produced": 2646, "\u2581hot": 2647, "\u2581months": 2648, "\u2581immediately": 2649, "\u2581online": 2650, "\u2581doubt": 2651, "\u2581stage": 2652, "\u2581becomes": 2653, "\u2581independent": 2654, "\u2581analysis": 2655, "\u2581sorry": 2656, "\u2581supposed": 2657, "\u2581degree": 2658, "\u2581alone": 2659, "ongo": 2660, "\u2581reached": 2661, "\u2581ai": 2662, "\u2581announ": 2663, "\u2581platform": 2664, "\u2581capital": 2665, "azz": 2666, "fortunately": 2667, "\u2581yourself": 2668, "\u2581prior": 2669, "\u2581treat": 2670, "\u2581rat": 2671, "\u2581continued": 2672, "\u2581nice": 2673, "yer": 2674, "\u2581places": 2675, "\u2581primary": 2676, "atory": 2677, "sur": 2678, "\u2581board": 2679, "\u2581greater": 2680, "\u2581inn": 2681, "\u2581picture": 2682, "\u2581mont": 2683, "\u2581civil": 2684, "\u2581ber": 2685, "\u2581wouldn": 2686, "\u2581artist": 2687, "\u2581mach": 2688, "\u2581rock": 2689, "\u2581gold": 2690, "\u2581weight": 2691, "fun": 2692, "\u2581gone": 2693, "\u2581answered": 2694, "\u2581False": 2695, "dr": 2696, "\u2581lock": 2697, "\u2581speak": 2698, "\u2581produce": 2699, "oi": 2700, "\u2581cart": 2701, "\u2581twe": 2702, "aga": 2703, "\u2581naz": 2704, "\u2581recent": 2705, "\u2581net": 2706, "\u2581resources": 2707, "\u2581cele": 2708, "\u2581benef": 2709, "\u2581entered": 2710, "\u2581includes": 2711, "elling": 2712, "nic": 2713, "\u2581girl": 2714, "pal": 2715, "\u2581established": 2716, "\u2581sit": 2717, "\u2581favor": 2718, "\u2581liber": 2719, "\u2581bind": 2720, "\u2581friends": 2721, "\u2581community": 2722, "uman": 2723, "\u2581drive": 2724, "\u2581amer": 2725, "\u2581mine": 2726, "\u2581increase": 2727, "sky": 2728, "\u2581sex": 2729, "\u2581green": 2730, "ikan": 2731, "\u2581train": 2732, "\u2581stay": 2733, "\u2581ready": 2734, "uje": 2735, "while": 2736, "\u2581understanding": 2737, "\u2581ye": 2738, "\u2581ago": 2739, "\u2581domin": 2740, "\u2581boy": 2741, "\u2581interesting": 2742, "\u2581demon": 2743, "\u2581office": 2744, "\u2581students": 2745, "ija": 2746, "\u2581posted": 2747, "\u2581weak": 2748, "\u2581champion": 2749, "your": 2750, "isa": 2751, "yy": 2752, "\u2581ale": 2753, "lah": 2754, "atu": 2755, "\u2581games": 2756, "\u2581lu": 2757, "\u2581brother": 2758, "\u2581kept": 2759, "\u2581provides": 2760, "wide": 2761, "\u2581race": 2762, "\u2581rid": 2763, "lab": 2764, "har": 2765, "\u2581Ko": 2766, "\u2581bul": 2767, "\u2581pil": 2768, "\u2581leading": 2769, "\u2581channel": 2770, "aka": 2771, "mas": 2772, "\u2581forces": 2773, "ulations": 2774, "oring": 2775, "when": 2776, "\u2581rich": 2777, "bus": 2778, "\u2581election": 2779, "\u2581books": 2780, "\u2581nas": 2781, "\u2581ball": 2782, "\u2581hear": 2783, "\u2581pure": 2784, "\u2581charge": 2785, "aren": 2786, "imin": 2787, "mb": 2788, "aje": 2789, "\u2581finish": 2790, "\u2581feed": 2791, "pan": 2792, "mus": 2793, "\u2581student": 2794, "\u2581notice": 2795, "\u2581guard": 2796, "\u2581fell": 2797, "\u2581views": 2798, "\u2581stood": 2799, "enda": 2800, "bur": 2801, "\u2581moving": 2802, "\u2581basis": 2803, "\u2581formed": 2804, "\u2581earth": 2805, "\u2581centre": 2806, "\u2581manager": 2807, "\u2581decided": 2808, "anci": 2809, "\u2581living": 2810, "\u2581prison": 2811, "\u2581tools": 2812, "\u2581couldn": 2813, "\u2581predict": 2814, "\u2581ki": 2815, "anza": 2816, "\u2581zo": 2817, "nak": 2818, "\u2581spirit": 2819, "yar": 2820, "\u2581focus": 2821, "\u2581attention": 2822, "\u2581march": 2823, "\u2581river": 2824, "\u2581caused": 2825, "nam": 2826, "\u2581fight": 2827, "\u2581political": 2828, "emas": 2829, "\u2581bud": 2830, "ders": 2831, "esa": 2832, "mac": 2833, "uy": 2834, "kaz": 2835, "\u2581nad": 2836, "\u201d.": 2837, "bul": 2838, "\u2581hus": 2839, "\u2581agree": 2840, "\u2581price": 2841, "inu": 2842, "\u2581carry": 2843, "\u2581stated": 2844, "\u2581sleep": 2845, "eda": 2846, "hot": 2847, "amar": 2848, "\u2581ast": 2849, "nah": 2850, "\u2581beyond": 2851, "\u2581ng": 2852, "\u2581managed": 2853, "eria": 2854, "\u2581daughter": 2855, "\u2581hol": 2856, "\u2581truth": 2857, "??": 2858, "\u2581wild": 2859, "\u2581signed": 2860, "\u2581tax": 2861, "idi": 2862, "\u2581actions": 2863, "\u2581chance": 2864, "\u2581dol": 2865, "nil": 2866, "abb": 2867, "\u2581interested": 2868, "aro": 2869, "\u2581fear": 2870, "\u2581hal": 2871, "\u2581susp": 2872, "\u2581wo": 2873, "\u2581director": 2874, "oda": 2875, "\u2581sir": 2876, "\u2581policy": 2877, "\u2581reply": 2878, "\u2581ig": 2879, "nat": 2880, "security": 2881, "jan": 2882, "\u2581journal": 2883, "\u2581certainly": 2884, "\u2581reported": 2885, "\u2581court": 2886, "\u2581internet": 2887, "\u2581carried": 2888, "\u2581wasn": 2889, "\u2581phone": 2890, "aya": 2891, "\u2581vot": 2892, "\u2581bin": 2893, "free": 2894, "yo": 2895, "\u2581health": 2896, "\u2581kw": 2897, "\u2581hun": 2898, "\u2581limited": 2899, "\u2581serve": 2900, "\u2581kann": 2901, "\u2581chief": 2902, "\u2581scene": 2903, "kin": 2904, "\u2581quickly": 2905, "amin": 2906, "\u2581safe": 2907, "\u2581foreign": 2908, "\u2581military": 2909, "\u2581bank": 2910, "\u2581successful": 2911, "oku": 2912, "bank": 2913, "tu": 2914, "don": 2915, "ests": 2916, "fit": 2917, "\u2581helped": 2918, "enced": 2919, "\u2581firm": 2920, "\u2581mel": 2921, "\u2581ul": 2922, "\u2581remains": 2923, "\u2581culture": 2924, "\u2581projects": 2925, "\u2581latest": 2926, "\u2581kam": 2927, "king": 2928, "\u2581impossible": 2929, "\u2581trust": 2930, "\u2581products": 2931, "\u2581strength": 2932, "\u2581announced": 2933, "\u2581ya": 2934, "ike": 2935, "\u2581ep": 2936, "\u2581oh": 2937, "\u201d,": 2938, "\u2581compared": 2939, "\u2581heavy": 2940, "\u2581anti": 2941, "\u2581dear": 2942, "\u2581opinion": 2943, "\u2581fish": 2944, "iw": 2945, "\u2581saf": 2946, "\u2581relationship": 2947, "\u2581killed": 2948, "ted": 2949, "\u2581aren": 2950, "\u2581minor": 2951, "\u2581eight": 2952, "\u2581statements": 2953, "\u2581aware": 2954, "\u2581effects": 2955, "\u2581happened": 2956, "\u2581beautiful": 2957, "\u2581forget": 2958, "ned": 2959, "\u2581gan": 2960, "\u2581reasons": 2961, "\u2581mand": 2962, "\u2581tv": 2963, "\u2581scient": 2964, "video": 2965, "\u2581demand": 2966, "\u2581spread": 2967, "\u2581food": 2968, "\u2581involved": 2969, "\u2581nap": 2970, "anna": 2971, "umin": 2972, "\u2581san": 2973, "\u2581east": 2974, "\u2581spot": 2975, "\u2581news": 2976, "ilities": 2977, "\u2581lab": 2978, "\u2581education": 2979, "\u2581happy": 2980, "\u2581ensure": 2981, "\u2581bor": 2982, "\u2581today": 2983, "\u2581union": 2984, "\u2581advice": 2985, "\u2581travel": 2986, "\u2581award": 2987, "alla": 2988, "aine": 2989, "\u2581sy": 2990, "\u2581seven": 2991, "\u2581sister": 2992, "anni": 2993, "\u2581ban": 2994, "ims": 2995, "\u2581knows": 2996, "\u2581tar": 2997, "aja": 2998, "\u2581ba": 2999, "\u2581highest": 3000, "aki": 3001, "\u2581influence": 3002, "\u2581fat": 3003, "\u2581talking": 3004, "\u2581familiar": 3005, "\u2581army": 3006, "\u2581\"\"\"": 3007, "contr": 3008, "\u2581market": 3009, "rank": 3010, "awa": 3011, "\u2581showed": 3012, "\u2581protest": 3013, "\u2581occasion": 3014, "\u2581respond": 3015, "iki": 3016, "\u2581maj": 3017, "izi": 3018, "\u2581determined": 3019, "\u2581wall": 3020, "igi": 3021, "yan": 3022, "\u2581throughout": 3023, "\u2581ri": 3024, "\u2581identity": 3025, "\u2581presence": 3026, "\u2581leaving": 3027, "\u2581establish": 3028, "\u2581maar": 3029, "adi": 3030, "\u2581fab": 3031, "\u2581largest": 3032, "\u2581percent": 3033, "\u2581ay": 3034, "\u2581areas": 3035, "\u2581mistake": 3036, "amo": 3037, "two": 3038, "inas": 3039, "\u2581vy": 3040, "\u2581labor": 3041, "\u2581husband": 3042, "bat": 3043, "\u2581lack": 3044, "\u2581increasing": 3045, "imi": 3046, "\u2581professional": 3047, "\u2581languages": 3048, "cen": 3049, "\u2581movement": 3050, "\u2581reve": 3051, "\u2581shot": 3052, "\u2581recently": 3053, "aks": 3054, "\u2581cha": 3055, "ikon": 3056, "\u2581tan": 3057, "iko": 3058, "\u2581ga": 3059, "\u2581ip": 3060, "\u2581existence": 3061, "\u2581mad": 3062, "\u2581spent": 3063, "\u2581blood": 3064, "\u2581raised": 3065, "\u2581mobile": 3066, "\u2581rights": 3067, "\u2581happening": 3068, "\u2581science": 3069, "\u2581recorded": 3070, "ogo": 3071, "\u2581gas": 3072, "\u2581kap": 3073, "\u2581surv": 3074, "\u2581waiting": 3075, "\u2581sentence": 3076, "\u2581battle": 3077, "\u2581Input": 3078, "osh": 3079, "\u2581gradu": 3080, "\u2581lived": 3081, "\u2581tells": 3082, "\u2581decision": 3083, "agu": 3084, "\u2581camb": 3085, "\u2581Vi": 3086, "\u2581advantage": 3087, "\u2581vir": 3088, "\u2581zone": 3089, "\u2581management": 3090, "once": 3091, "\u2581raw": 3092, "law": 3093, "\u2581mission": 3094, "\u2581camera": 3095, "\u2581honor": 3096, "\u2581serious": 3097, "\u2581chap": 3098, "\u2581highly": 3099, "\u2581dress": 3100, "omo": 3101, "\u2581permission": 3102, "\u2581soul": 3103, "\u2581wants": 3104, "\u2581guide": 3105, "\u2581evidence": 3106, "\u2581ble": 3107, "\u2581players": 3108, "isi": 3109, "\u2581peace": 3110, "kes": 3111, "\u2581powers": 3112, "\u2581explained": 3113, "\u2581faith": 3114, "\u2581fresh": 3115, "\u2581kar": 3116, "uma": 3117, "\u2581kor": 3118, "\u2581impact": 3119, "\u2581ms": 3120, "\u2581bash": 3121, "\u2581celebr": 3122, "eto": 3123, "\u2581inj": 3124, "\u2581cry": 3125, "\u2581lan": 3126, "aban": 3127, "\u2581countries": 3128, "\u2581manage": 3129, "uras": 3130, "\u2581gy": 3131, "\u2581learned": 3132, "\u2581police": 3133, "\u2581eye": 3134, "\u2581evening": 3135, "kw": 3136, "\u2581quality": 3137, "\u2581minister": 3138, "kan": 3139, "inda": 3140, "\u2581ta": 3141, "mag": 3142, "before": 3143, "\u2581fal": 3144, "was": 3145, "\u2581enemy": 3146, "\u2581mask": 3147, "\u2581bill": 3148, "\u2581ll": 3149, "\u2581mostly": 3150, "\u2581improve": 3151, "igan": 3152, "\u2581critic": 3153, "\u2581emer": 3154, "bn": 3155, "\u2581dog": 3156, "\u2581ak": 3157, "\u2581regarding": 3158, "hin": 3159, "\u2581feeling": 3160, "fah": 3161, "standing": 3162, "oral": 3163, "\u2581topic": 3164, "anne": 3165, "\u2581vice": 3166, "asa": 3167, "vised": 3168, "\u2581trade": 3169, "kal": 3170, "\u2581eth": 3171, "uti": 3172, "\u2581wa": 3173, "usa": 3174, "\u2581fly": 3175, "eni": 3176, "wall": 3177, "\u2581island": 3178, "she": 3179, "\u2581lady": 3180, "\u2581weeks": 3181, "izo": 3182, "\u2581enjo": 3183, "eman": 3184, "\u2581ud": 3185, "wan": 3186, "sun": 3187, "\u2581television": 3188, "\u2581elected": 3189, "\u2581assembly": 3190, "uba": 3191, "\u2581ability": 3192, "essed": 3193, "\u2581campaign": 3194, "\u2581opposite": 3195, "\u2581doctor": 3196, "\u2581listen": 3197, "asm": 3198, "\u2581definitely": 3199, "\u2581promise": 3200, "\u2581increased": 3201, "\u2581noted": 3202, "\u2581gather": 3203, "\u2581legal": 3204, "\u2581vote": 3205, "\u2581vac": 3206, "yen": 3207, "\u2581meeting": 3208, "\u2581posts": 3209, "\u2581zij": 3210, "\u2581leader": 3211, "\u2581parents": 3212, "\u2581forced": 3213, "\u2581effective": 3214, "ilia": 3215, "\u2581sites": 3216, "\u2581lit": 3217, "\u2581eu": 3218, "\u2581gab": 3219, "even": 3220, "\u2581studies": 3221, "\u2581nun": 3222, "\u2581vil": 3223, "\u2581pic": 3224, "\u2581tou": 3225, "\u2581street": 3226, "\u2581arrived": 3227, "\u2581lad": 3228, "\u2581sand": 3229, "aca": 3230, "\u2581raise": 3231, "\u2581deliver": 3232, "\u2581risk": 3233, "\u2581birth": 3234, "\u2581lives": 3235, "\u2581communication": 3236, "\u2581kill": 3237, "esh": 3238, "isions": 3239, "\u2581dag": 3240, "\u2581officer": 3241, "\u2581hur": 3242, "\u2581huge": 3243, "\u2581coast": 3244, "\u2581lies": 3245, "\u2581critical": 3246, "\u2581cra": 3247, "\u2581aim": 3248, "\u2581professor": 3249, "\u2581province": 3250, "dal": 3251, "\u2581films": 3252, "\u2581ja": 3253, "\u2581lov": 3254, "\u2581ik": 3255, "\u2581youth": 3256, "jal": 3257, "\u2581identify": 3258, "\u2581society": 3259, "\u2581schools": 3260, "\u2581pray": 3261, "\u2581sau": 3262, "\u2581keeping": 3263, "\u2581songs": 3264, "\u2581shut": 3265, "\u2581paid": 3266, "\u2581dream": 3267, "\u2581protect": 3268, "\u2581dash": 3269, "oy": 3270, "\u2581blog": 3271, "won": 3272, "\u2581generation": 3273, "tar": 3274, "\u2581gaz": 3275, "\u2581electric": 3276, "\u2581differences": 3277, "\u2581broadcast": 3278, "anga": 3279, "\u2581spoke": 3280, "there": 3281, "\u2581hall": 3282, "about": 3283, "\u2581episode": 3284, "iri": 3285, "\u2581baz": 3286, "\u2581college": 3287, "\u2581kur": 3288, "agon": 3289, "opo": 3290, "edge": 3291, "\u2581variety": 3292, "\u2581nah": 3293, "\u2581rig": 3294, "irs": 3295, "\u2581female": 3296, "\u2581houses": 3297, "\u2581pressure": 3298, "\u2581religious": 3299, "fan": 3300, "\u2581commission": 3301, "\u2581jak": 3302, ",,": 3303, "\u2581wen": 3304, "\u2581aud": 3305, "many": 3306, "\u2581organization": 3307, "may": 3308, "\u2581december": 3309, "\u2581....": 3310, "\u2581protection": 3311, "\u2581officers": 3312, "bash": 3313, "\u2581ub": 3314, "\u2581believed": 3315, "\u2581thoughts": 3316, "\u2581providing": 3317, "tan": 3318, "\u2581families": 3319, "\u2581bil": 3320, "iji": 3321, "\u2581league": 3322, "\u2581prepared": 3323, "mers": 3324, "\u2581Response": 3325, "vy": 3326, "\u2581duty": 3327, "\u2581expressed": 3328, "\u2581enjoy": 3329, "\u2581mouth": 3330, "\u2581murder": 3331, "\u2581afraid": 3332, "\u2581religion": 3333, "\u2581digital": 3334, "sam": 3335, "\u2581hospital": 3336, "adu": 3337, "\u2581ram": 3338, "\u2581diplom": 3339, "\u2581importance": 3340, "power": 3341, "\u2581desire": 3342, "\u2581familia": 3343, "\u2581fan": 3344, "aman": 3345, "\u2581ka": 3346, "cement": 3347, "azu": 3348, "\u2581bomb": 3349, "\u2581holding": 3350, "\u2581speaking": 3351, "\u2581ii": 3352, "\u2581aj": 3353, "eri": 3354, "fas": 3355, "\u2581majority": 3356, "\u2581industry": 3357, "\u2581reports": 3358, "rar": 3359, "\u2581Ka": 3360, "\u2581mant": 3361, "nan": 3362, "\u2581fir": 3363, "\u2581gun": 3364, "\u2581drink": 3365, "\u2581matters": 3366, "\u2581banda": 3367, "\u2581traditional": 3368, "wad": 3369, "\u2581famous": 3370, "\u2581vin": 3371, "\u2581Below": 3372, "\u2581factors": 3373, "dc": 3374, "\u2581plans": 3375, "\u2581staff": 3376, "\u2581soldiers": 3377, "\u2581parties": 3378, "\u2581powerful": 3379, "\u2581figures": 3380, "called": 3381, "\u2581girls": 3382, "iken": 3383, "\u2581regional": 3384, "\u2581candidate": 3385, "\u2581nat": 3386, "\u2581imagine": 3387, "\u2581responsible": 3388, "will": 3389, "\u2581rub": 3390, "\u2581movie": 3391, "\u2581lose": 3392, "\u2581park": 3393, "indi": 3394, "aton": 3395, "\u2581extremely": 3396, "\u2581benefit": 3397, "\u2581becoming": 3398, "\u2581greatest": 3399, "\u2581nine": 3400, "emi": 3401, "\u2581daily": 3402, "\u2581sweet": 3403, "\u2581efforts": 3404, "\u2581laws": 3405, "\u2581trial": 3406, "\u2581male": 3407, "apa": 3408, "\u2581storm": 3409, "\u2581vita": 3410, "\u2581department": 3411, "\u2581growth": 3412, "\u2581jam": 3413, "\u2581authority": 3414, "\u2581attend": 3415, "\u2581Write": 3416, "ctors": 3417, "\u2581achieved": 3418, "\u2581cities": 3419, "\u2581ali": 3420, "\u2581ahead": 3421, "\u2581goals": 3422, "\u2581mart": 3423, "\u2581rise": 3424, "\u2581broke": 3425, "\u2581treatment": 3426, "\u2581telling": 3427, "\u2581conflict": 3428, "\u2581november": 3429, "ensa": 3430, "uli": 3431, "such": 3432, "\u2581companies": 3433, "\u2581zam": 3434, "why": 3435, "\u2581sad": 3436, "ometimes": 3437, "\u2581northern": 3438, "wal": 3439, "\u2581jar": 3440, "bbi": 3441, "\u2581sale": 3442, "\u2581mk": 3443, "\u2581sports": 3444, "\u2581dai": 3445, "\u2581europe": 3446, "icians": 3447, "\u2581moral": 3448, "\u2581millions": 3449, "\u2581lub": 3450, "\u2581historia": 3451, "eh": 3452, "icious": 3453, "\u2581southern": 3454, "\u2581hay": 3455, "atar": 3456, "oga": 3457, "\u2581totally": 3458, "\u2581corps": 3459, "ented": 3460, "atol": 3461, "\u2581pictures": 3462, "\u2581quote": 3463, "\u2581brand": 3464, "\u2581conversation": 3465, "\u2581animals": 3466, "\u2581Yeah": 3467, "\u2581despite": 3468, "\u2581concerned": 3469, "inta": 3470, "\u2581terror": 3471, "\u2581zak": 3472, "\u2581incident": 3473, "also": 3474, "\u2581affected": 3475, "oko": 3476, "\u2581launched": 3477, "\u2581ton": 3478, "\u2581august": 3479, "\u2581instruction": 3480, "\u2581januari": 3481, "\u2581sab": 3482, "oti": 3483, "\u2581compla": 3484, "oba": 3485, "\u2581joy": 3486, "\u2581safety": 3487, "kh": 3488, "\u2581victory": 3489, "\u2581measures": 3490, "\u2581photo": 3491, "\u2581beauty": 3492, "\u2581dub": 3493, "\u2581justice": 3494, "nor": 3495, "\u2581kun": 3496, "\u2581association": 3497, "\u2581technology": 3498, "\u2581pale": 3499, "umi": 3500, "\u2581ray": 3501, "\u2581interview": 3502, "\u2581winning": 3503, "anu": 3504, "far": 3505, "obi": 3506, "\u2581discussed": 3507, "\u2581buy": 3508, "\u2581tall": 3509, "\u2581growing": 3510, "\u2581teacher": 3511, "\u2581individuals": 3512, "nn": 3513, "\u2581bol": 3514, "\u2581western": 3515, "aye": 3516, "pole": 3517, "\u2581historical": 3518, "\u2581writes": 3519, "\u2581stories": 3520, "\u2581heads": 3521, "\u2581prince": 3522, "bia": 3523, "who": 3524, "\u2581Ni": 3525, "\u2581legend": 3526, "\u2581honest": 3527, "\u2581festival": 3528, "\u2581careful": 3529, "iona": 3530, "\u2581scientific": 3531, "hum": 3532, "since": 3533, "\u2581bare": 3534, "\u2581medical": 3535, "uh": 3536, "\u2581evil": 3537, "unta": 3538, "aska": 3539, "\u2581credit": 3540, "\u2581aid": 3541, "\u2581witness": 3542, "\u2581realize": 3543, "\u2581ham": 3544, "\u2581university": 3545, "\u2581cultural": 3546, "\u2581bou": 3547, "cin": 3548, "\u2581intention": 3549, "\u2581fis": 3550, "\u2581nau": 3551, "\u2581fus": 3552, "operation": 3553, "\u2581seek": 3554, "\u2581particul": 3555, "\u2581Ki": 3556, "\u2581rum": 3557, "\u2581sake": 3558, "eti": 3559, "\u2581issued": 3560, "\u2581describes": 3561, "\u2581dor": 3562, "\u2581beat": 3563, "\u2581attacks": 3564, "\u2581acting": 3565, "\u2581prac": 3566, "\u2581wat": 3567, "dar": 3568, "icans": 3569, "idents": 3570, "\u2581claims": 3571, "\u2581hotel": 3572, "\u2581posting": 3573, "kil": 3574, "\u2581constitution": 3575, "good": 3576, "aku": 3577, "\u2581mom": 3578, "\u2581alleg": 3579, "\u2581reality": 3580, "\u2581judge": 3581, "dam": 3582, "\u2581merc": 3583, "zung": 3584, "iba": 3585, "\u2581Ky": 3586, "\u2581sera": 3587, "arta": 3588, "rai": 3589, "oka": 3590, "\u2581wal": 3591, "sha": 3592, "\u2581rag": 3593, "rin": 3594, "\u2581bless": 3595, "uting": 3596, "\u2581aur": 3597, "\u2581nin": 3598, "god": 3599, "\u2581federal": 3600, "\u2581disease": 3601, "\u2581bat": 3602, "\u2581gard": 3603, "\u2581workers": 3604, "\u2581wealth": 3605, "\u2581oil": 3606, "\u2581april": 3607, "\u2581dollars": 3608, "\u2581rain": 3609, "\u2581crime": 3610, "\u2581worst": 3611, "\u2581agreement": 3612, "\u2581juni": 3613, "xa": 3614, "\u2581sho": 3615, "\u2581economic": 3616, "ikai": 3617, "\u2581mud": 3618, "keep": 3619, "\u2581trip": 3620, "\u2581administration": 3621, "have": 3622, "atem": 3623, "\u2581sector": 3624, "\u2581eat": 3625, "nc": 3626, "\u2581jobs": 3627, "\u2581nar": 3628, "\u2581grace": 3629, "\u2581kinds": 3630, "agi": 3631, "\u2581resistance": 3632, "\u2581photograph": 3633, "\u2581willing": 3634, "aso": 3635, "\u2581homes": 3636, "...\"": 3637, "\u2581inten": 3638, "neut": 3639, "\u2581revealed": 3640, "\u2581bodies": 3641, "\u2581radi": 3642, "every": 3643, "\u2581nag": 3644, "\u2581cup": 3645, "\u2581loved": 3646, "\u2581sons": 3647, "\u2581challeng": 3648, "aru": 3649, "\u2581dign": 3650, "\u2581lord": 3651, "bil": 3652, "\u2581financial": 3653, "\u2581continues": 3654, "\u2581Ku": 3655, "\u2581dangerous": 3656, "\u2581guys": 3657, "\u2581september": 3658, "\u2581nut": 3659, "amarin": 3660, "iku": 3661, "\u2581sexual": 3662, "\u2581uk": 3663, "ashi": 3664, "anka": 3665, "\u2581facebook": 3666, "\u2581heaven": 3667, "did": 3668, "\u2581citizens": 3669, "dan": 3670, "\u2581encourag": 3671, "\u2581tun": 3672, "eness": 3673, "ichi": 3674, "\u2581chi": 3675, "\u2581explains": 3676, ".....": 3677, "\u2581damage": 3678, "\u2581principles": 3679, "\u2581ts": 3680, "\u2581council": 3681, "aci": 3682, "\u2581hung": 3683, "\u2581alive": 3684, "\u2581challenge": 3685, "\u2581tang": 3686, "\u2581teaching": 3687, "\u2581essential": 3688, "\u2581experienced": 3689, "azi": 3690, "\u2581spend": 3691, "\u2581assistance": 3692, "\u2581hade": 3693, "\u2581forg": 3694, "\u2581signs": 3695, "\u2581ami": 3696, "\u2581votes": 3697, "\u2581kir": 3698, "\u2581prepare": 3699, "\u2581kin": 3700, "\u2581nations": 3701, "\u2581rang": 3702, "abi": 3703, "uki": 3704, "\u2581skin": 3705, "\u2581committed": 3706, "\u2581kall": 3707, "\u2581sharing": 3708, "\u2581\u00e2": 3709, "\u2581lake": 3710, "\u2581revolution": 3711, "\u2581tir": 3712, "kie": 3713, "\u2581ti": 3714, "\u2581bag": 3715, "\u2581prominent": 3716, "they": 3717, "mad": 3718, "\u2581opposition": 3719, "alia": 3720, "\u2581newspaper": 3721, "\u2581videos": 3722, "take": 3723, "\u2581streets": 3724, "\u2581hub": 3725, "\u2581mos": 3726, "\u2581gift": 3727, "oa": 3728, "\u2581ji": 3729, "yard": 3730, "\u2581courage": 3731, "iy": 3732, "aza": 3733, "\u2581ade": 3734, "\u2581interests": 3735, "\u2581audience": 3736, "amba": 3737, "\u2581wol": 3738, "\u2581faced": 3739, "\u2581unity": 3740, "\u2581delivered": 3741, "\u2581bata": 3742, "eso": 3743, "uru": 3744, "\u2581(@": 3745, "iveness": 3746, "\u2581elections": 3747, "\u2581governor": 3748, "imar": 3749, "\u2581stupid": 3750, "\u2581leaders": 3751, "\u2581ourselves": 3752, "apping": 3753, "\u2581customers": 3754, "\u2581nuclear": 3755, "\u2581supporting": 3756, "\u2581photos": 3757, "\u2581mini": 3758, "\u2581gang": 3759, "through": 3760, "\u2581dah": 3761, "zik": 3762, "dg": 3763, "\u2581kingdom": 3764, "\u2581reward": 3765, "say": 3766, "kim": 3767, "anya": 3768, "\u2581spiritual": 3769, "\u2581actress": 3770, "!!!": 3771, "omi": 3772, "\u2581ah": 3773, "oki": 3774, "\u2581villa": 3775, "atum": 3776, "iah": 3777, "\u2581charges": 3778, "\u2581spite": 3779, "\u2581valuable": 3780, "\u2581committee": 3781, "\u2581authorities": 3782, "fu": 3783, "acre": 3784, "\u2581watching": 3785, "\u2581strike": 3786, "\u2581tam": 3787, "\u2581focused": 3788, "had": 3789, "\u2581conference": 3790, "\u2581zar": 3791, "\u2581brothers": 3792, "\u2581zal": 3793, "\u2581!!": 3794, "\u2581violence": 3795, "lm": 3796, "kap": 3797, "rr": 3798, "\u2581mich": 3799, "ulu": 3800, "photo": 3801, "\u2581tum": 3802, "\u2581ace": 3803, "\u2581candidates": 3804, "away": 3805, "\u2581feelings": 3806, "adesh": 3807, "\u2581cc": 3808, "\u2581nit": 3809, "\u2581iphone": 3810, "\u2581independence": 3811, "\u2581domestic": 3812, "\u2581characteristics": 3813, "\u2581yeah": 3814, "\u2581nim": 3815, "must": 3816, "\u2581partners": 3817, "\u2581patients": 3818, "\u2581commander": 3819, "\u2581zag": 3820, "\u2581criminal": 3821, "\u2581gathered": 3822, "\u2581zab": 3823, "\u2581proud": 3824, "\u2581mp": 3825, "\u2581household": 3826, "alu": 3827, "\u2581imply": 3828, "\u2581kwam": 3829, "\u2581regime": 3830, "orrow": 3831, "\u2581promised": 3832, "\u2581hearing": 3833, "\u2581investigation": 3834, "\u2581advoc": 3835, "\u2581pill": 3836, "\u2581Wa": 3837, "\u2581arrest": 3838, "\u2581enemies": 3839, "\u2581hizo": 3840, "fur": 3841, "\u2581ras": 3842, "\u2581politics": 3843, "irus": 3844, "\u2581supre": 3845, "\u2581executive": 3846, "\u2581pole": 3847, "\u2581foundation": 3848, "arma": 3849, "bian": 3850, "olin": 3851, "his": 3852, "\u2581stress": 3853, "\u2581sar": 3854, "\u2581hu": 3855, "nas": 3856, "kup": 3857, "ipo": 3858, "uka": 3859, "\u2581emot": 3860, "aran": 3861, "\u2581bay": 3862, "\u2581colle": 3863, "\u2581tub": 3864, "\u2581responsibility": 3865, "arda": 3866, "\u2581nobody": 3867, "\u2581dare": 3868, "edly": 3869, "\u2581februari": 3870, "another": 3871, "\u2581nak": 3872, "\u2581killing": 3873, "\u2581twitter": 3874, "atan": 3875, "\u2581reporting": 3876, "\u2581nan": 3877, "rais": 3878, "\u2581communities": 3879, "hai": 3880, "arina": 3881, "\u2581budget": 3882, "\u2581climate": 3883, "\u2581benefits": 3884, "\u2581ash": 3885, "\u2581coverage": 3886, "kur": 3887, "\u2581gay": 3888, "mil": 3889, "\u2581republic": 3890, "\u2581armed": 3891, "\u2581hell": 3892, "egu": 3893, "\u2581kunnen": 3894, "\u2581residents": 3895, "afen": 3896, "domin": 3897, "\u2581movements": 3898, "nar": 3899, "\u2581crisis": 3900, "\u2581violent": 3901, "chin": 3902, "\u2581baby": 3903, "\u2581arrested": 3904, "mai": 3905, "\u2581ara": 3906, "\u2581virus": 3907, "emu": 3908, "\u2581journalist": 3909, "illed": 3910, "\u2581billion": 3911, "umar": 3912, "demic": 3913, "assa": 3914, "mun": 3915, "din": 3916, "\u2581parl": 3917, "\u2581cinema": 3918, "\u2581defend": 3919, "\u2581yo": 3920, "\u2581gare": 3921, "\u2581policies": 3922, "vu": 3923, "\u2581vij": 3924, "\u2581condem": 3925, "\u2581fans": 3926, "zan": 3927, "\u2581officials": 3928, "twitter": 3929, "\u2581pride": 3930, "\u2581gam": 3931, "\u2581coron": 3932, "mana": 3933, "\u2581lok": 3934, "inde": 3935, "\u2581murm": 3936, "\u2581sentences": 3937, "\u2581mij": 3938, "\u2581pover": 3939, "\u2581weapons": 3940, "\u2581arab": 3941, "\u2581kal": 3942, "hh": 3943, "\u2581refuge": 3944, "\u2581insight": 3945, "gas": 3946, "\u2581christ": 3947, "iii": 3948, "aha": 3949, "\u2581divine": 3950, "qa": 3951, "yi": 3952, "\u2581latin": 3953, "\u2581organizations": 3954, "\u2581fake": 3955, "people": 3956, "\u2581seriously": 3957, "\u2581nada": 3958, "iman": 3959, "alin": 3960, "\u2581fas": 3961, "\u2581leadership": 3962, "\u2581sah": 3963, "ifa": 3964, "\u2581everybody": 3965, "\u2581glory": 3966, "gender": 3967, "ege": 3968, "\u2581apple": 3969, "\u2581kis": 3970, "achi": 3971, "\u2581hate": 3972, "uga": 3973, "\u2581sacrific": 3974, "\u2581worship": 3975, "apat": 3976, "\u2581pm": 3977, "\u2581kid": 3978, "\u2581defense": 3979, "\u2581fuel": 3980, "oshi": 3981, "qi": 3982, "endi": 3983, "\u2581hearts": 3984, "although": 3985, "\u2581economy": 3986, "\u2581pia": 3987, "\u2581queen": 3988, "\u2581holy": 3989, "could": 3990, "asha": 3991, "\u2581nab": 3992, "odia": 3993, "\u2581achiev": 3994, "\u2581gir": 3995, "\u2581bila": 3996, "\u2581faithful": 3997, "\u2581bush": 3998, "\u2581rabb": 3999, "arin": 4000, "\u2581negoti": 4001, "\u2581alb": 4002, "een": 4003, "\u2581illegal": 4004, "hon": 4005, "\u2581teachers": 4006, "hit": 4007, "\u2581promote": 4008, "\u2581prayer": 4009, "\u2581experiences": 4010, "bay": 4011, "\u2581promises": 4012, "\u2581Bin": 4013, "today": 4014, "\u2581tin": 4015, "kele": 4016, "\u2581debate": 4017, "Da": 4018, "baz": 4019, "fir": 4020, "yed": 4021, "adin": 4022, "oin": 4023, "oning": 4024, "isu": 4025, "\u2581amen": 4026, "aze": 4027, "\u2581shed": 4028, "san": 4029, "\u2581threat": 4030, "\u2581shame": 4031, "\u2581mn": 4032, "agar": 4033, "atia": 4034, "bah": 4035, "???": 4036, "jin": 4037, "gun": 4038, "\u2581voices": 4039, "\u2581accused": 4040, "ammed": 4041, "\u2581chairman": 4042, "\u2581mistakes": 4043, "ahu": 4044, "\u2581ili": 4045, "\u2581rud": 4046, "\u2581zat": 4047, "\u2581aa": 4048, "idan": 4049, "agua": 4050, "\u2581shares": 4051, "\u2581kat": 4052, "\u2581threatened": 4053, "\u2581mig": 4054, "ishi": 4055, "idia": 4056, "\u2581ibn": 4057, "aho": 4058, "\u2581intellectual": 4059, "\u2581bir": 4060, "\u2581alk": 4061, "\u2581": 4062, "e": 4063, "t": 4064, "a": 4065, "i": 4066, "n": 4067, "o": 4068, "r": 4069, "s": 4070, "l": 4071, "d": 4072, "h": 4073, "c": 4074, "u": 4075, "m": 4076, "p": 4077, "g": 4078, "f": 4079, ".": 4080, "b": 4081, "y": 4082, ",": 4083, "w": 4084, "v": 4085, "k": 4086, "1": 4087, ")": 4088, "(": 4089, "-": 4090, "0": 4091, ":": 4092, "I": 4093, "S": 4094, "2": 4095, "C": 4096, "\"": 4097, "A": 4098, "T": 4099, "/": 4100, "'": 4101, "x": 4102, "_": 4103, "z": 4104, "E": 4105, "M": 4106, "P": 4107, "j": 4108, "D": 4109, "9": 4110, "*": 4111, "L": 4112, "B": 4113, "R": 4114, ";": 4115, "#": 4116, "q": 4117, "N": 4118, "3": 4119, "F": 4120, "5": 4121, "4": 4122, "8": 4123, "\u00e9": 4124, "O": 4125, "H": 4126, "6": 4127, "G": 4128, "7": 4129, "W": 4130, ">": 4131, "[": 4132, "]": 4133, "V": 4134, "U": 4135, "J": 4136, "K": 4137, "?": 4138, "+": 4139, "Y": 4140, "Q": 4141, "&": 4142, "X": 4143, "!": 4144, "@": 4145, "%": 4146, "Z": 4147, "\u2014": 4148, "\u2019": 4149, "\u201c": 4150, "~": 4151, "\u201d": 4152, "\u00e3": 4153, "\u00e2": 4154, "\u00f5": 4155, "\u2026": 4156, "\u0101": 4157, "\u0627": 4158, "\u2022": 4159, "\u0631": 4160, "\u0646": 4161, "\u064a": 4162, "\u0648": 4163, "\u0628": 4164, "\u20ac": 4165, "\u062a": 4166, "\u0633": 4167, "\u0643": 4168, "\u064e": 4169, "\ufe0f": 4170, "\u200d": 4171, "\u2665": 4172, "\u2714": 4173, "\u2642": 4174, "\u263a": 4175, "\u2640": 4176, "\u2705": 4177, "\u2581ku": 4178, "\u2581kwa": 4179, "mba": 4180, "\u25812": 4181, "\u2581kati": 4182, "\u25811": 4183, "\u2581katika": 4184, "\u2581kuwa": 4185, "\u258120": 4186, "kuwa": 4187, "\u2581wana": 4188, "isha": 4189, "\u2581kama": 4190, "\u2581wan": 4191, "thi": 4192, "\u2581uku": 4193, "ungu": 4194, "shi": 4195, "\u2581mwa": 4196, "\u2581ana": 4197, "\u2581kuto": 4198, "\u2581ina": 4199, "rika": 4200, "\u2581zi": 4201, "ingi": 4202, "\u2581wali": 4203, "kati": 4204, "yu": 4205, "fanya": 4206, "kwa": 4207, "\u2581kwenye": 4208, "kiwa": 4209, "\u2581hiyo": 4210, "\u2581shi": 4211, "\u25813": 4212, "\u2581wi": 4213, "\u2581yake": 4214, "zani": 4215, "taka": 4216, "kana": 4217, "\u2581watu": 4218, "\u2581kuma": 4219, "\u2581vya": 4220, "\u2581yi": 4221, "bwa": 4222, "weza": 4223, "esha": 4224, "\u2581aka": 4225, "\u2581sana": 4226, "\u2581ame": 4227, "\u2581aki": 4228, "\u2581kwamba": 4229, "\u2581wakati": 4230, "shin": 4231, "\u2581sha": 4232, "chu": 4233, "bali": 4234, "\u2581baada": 4235, "\u2581yana": 4236, "\u2581hii": 4237, "20": 4238, "\u25814": 4239, "pata": 4240, "\u25815": 4241, "\u2581wake": 4242, "\u2581uta": 4243, "\u25810": 4244, "\u2581zaidi": 4245, "\u2581kutoka": 4246, "\u2581lakini": 4247, "\u2581uli": 4248, "\u2581hata": 4249, "kia": 4250, "zwa": 4251, "bari": 4252, "\u2581mwaka": 4253, "\u2581shu": 4254, "\u2581sasa": 4255, "mani": 4256, "\u2581kazi": 4257, "\u2581hivyo": 4258, "\u2581kum": 4259, "\u2581ime": 4260, "\u2581yan": 4261, "\u2581moja": 4262, "\u2581siku": 4263, "\u2581mata": 4264, "\u2581huo": 4265, "\u2581mtu": 4266, "\u2581wata": 4267, "\u2581mara": 4268, "yin": 4269, "kun": 4270, "eshi": 4271, "\u2581nchi": 4272, "riki": 4273, "\u2581kila": 4274, "chini": 4275, "\u2581alisema": 4276, "\u2581kasa": 4277, "\u2581mkuu": 4278, "\u2581tuna": 4279, "kea": 4280, "\u2581ama": 4281, "\u2581nchini": 4282, "\u2581maa": 4283, "\u2581ambayo": 4284, "\u2581wame": 4285, "\u2581tsa": 4286, "\u2581kwan": 4287, "\u2581kuji": 4288, "\u2581hilo": 4289, "\u2581ita": 4290, "\u2581saba": 4291, "gine": 4292, "\u25816": 4293, "\u2581zina": 4294, "\u2581hali": 4295, "\u2581kuna": 4296, "\u2581mwenye": 4297, "zungu": 4298, "\u2581kab": 4299, "zaji": 4300, "husu": 4301, "\u2581juu": 4302, "\u2581hawa": 4303, "dili": 4304, "\u2581habari": 4305, "\u2581daga": 4306, "\u2581maka": 4307, "\u2581isi": 4308, "\u2581mbali": 4309, "tho": 4310, "\u258119": 4311, "endelea": 4312, "\u2581walio": 4313, "\u2581waki": 4314, "\u2581rais": 4315, "\u25817": 4316, "\u2581aji": 4317, "shu": 4318, "\u2581huu": 4319, "jia": 4320, "\u2581huku": 4321, "\u2581iliyo": 4322, "\u2581leo": 4323, "\u258110": 4324, "\u2581wannan": 4325, "\u2581mwana": 4326, "\u2581kufanya": 4327, "\u25818": 4328, "\u2581suka": 4329, "\u2581tare": 4330, "\u2581ambao": 4331, "\u2581ume": 4332, "kua": 4333, "tin": 4334, "\u2581wao": 4335, "isho": 4336, "\u2581aba": 4337, "kama": 4338, "\u2581yao": 4339, "\u2581\u0199": 4340, "\u2581kui": 4341, "\u25819": 4342, "kuu": 4343, "\u2581mia": 4344, "anchi": 4345, "\u2581iya": 4346, "\u2581kuli": 4347, "kata": 4348, "tun": 4349, "\u2581masu": 4350, "hari": 4351, "\u2581sababu": 4352, "\u2581hayo": 4353, "\u2581hapa": 4354, "\u2581ndani": 4355, "sia": 4356, "jua": 4357, "\u2581yako": 4358, "\u2581hadi": 4359, "tsa": 4360, "wu": 4361, "000": 4362, "\u2581kuu": 4363, "\u2581maji": 4364, "\u2581bara": 4365, "\u2581kubwa": 4366, "\u2581wani": 4367, "\u2581mungu": 4368, "wezi": 4369, "\u2581kitu": 4370, "\u2581mambo": 4371, "ishwa": 4372, "\u2581zili": 4373, "wana": 4374, "\u2581miaka": 4375, "\u2581maha": 4376, "\u2581kuhusu": 4377, "unga": 4378, "\u2581haki": 4379, "\u2581usa": 4380, "\u2581wananchi": 4381, "\u2581muda": 4382, "tic": 4383, "\u2581wote": 4384, "\u2581uwe": 4385, "\u2581mmoja": 4386, "\u2581hai": 4387, "\u2581ata": 4388, "\u2581haku": 4389, "\u2581wenye": 4390, "\u2581maana": 4391, "\u2581nje": 4392, "lewa": 4393, "kisha": 4394, "\u2581wanao": 4395, "\u2581200": 4396, "\u2581yali": 4397, "10": 4398, "husi": 4399, "\u2581kuku": 4400, "\u2581ambaye": 4401, "\u2581kusa": 4402, "\u2581aliye": 4403, "\u2581hao": 4404, "jwa": 4405, "\u2581ajili": 4406, "wenda": 4407, "\u2581kuta": 4408, "\u258112": 4409, "\u2581wengi": 4410, "dai": 4411, "\u2581kina": 4412, "fiki": 4413, "weka": 4414, "\u2581chama": 4415, "\u2581wanda": 4416, "\u2581hivi": 4417, "ongeza": 4418, "\u2581taifa": 4419, "amu": 4420, "kio": 4421, "\u2581nili": 4422, "anar": 4423, "\u2581maisha": 4424, "\u2581usi": 4425, "\u2581kupata": 4426, "futa": 4427, "sion": 4428, "\u2581duni": 4429, "\u2581masha": 4430, "hitaji": 4431, "\u2581fedha": 4432, "himu": 4433, "esu": 4434, "\u2581kweli": 4435, "\u2581lina": 4436, "\u258111": 4437, "\u2581kasar": 4438, "andi": 4439, "\u2581jin": 4440, "\u2581wengine": 4441, "\u2581ndio": 4442, "\u2581hili": 4443, "haki": 4444, "\u2581ulio": 4445, "mwa": 4446, "\u2581amesema": 4447, "\u2581zao": 4448, "\u2581jamii": 4449, "\u25812017": 4450, "\u258115": 4451, "\u2581haya": 4452, "\u2581kutokana": 4453, "\u2581kuka": 4454, "\u2581hapo": 4455, "\u2581kutoa": 4456, "\u2581watoto": 4457, "omba": 4458, "\u2581nini": 4459, "inga": 4460, "\u2581zai": 4461, "\u2581nafasi": 4462, "\u2581chini": 4463, "\u2581hatua": 4464, "\u2581chu": 4465, "\u2581inayo": 4466, "\u2581njia": 4467, "yana": 4468, "\u2581mfu": 4469, "\u2581nyingine": 4470, "\u2581kawa": 4471, "\u2581basi": 4472, "\u2581mada": 4473, "\u2581lili": 4474, "\u2581kai": 4475, "lioni": 4476, "\u2581kabisa": 4477, "\u2581akiwa": 4478, "\u2581kima": 4479, "\u2581tena": 4480, "\u2581iki": 4481, "\u2581mpya": 4482, "\u2581sheria": 4483, "\u2581baadhi": 4484, "\u2581kua": 4485, "\u2581tha": 4486, "wala": 4487, "\u2581salaam": 4488, "\u2581zote": 4489, "\u2581zuwa": 4490, "\u2581huduma": 4491, "\u2581wewe": 4492, "\u2581sehemu": 4493, "\u2581ala": 4494, "\u2581kara": 4495, "\u2581yetu": 4496, "\u2581wasi": 4497, "\u2581timu": 4498, "\u2581awa": 4499, "\u2581bayan": 4500, "\u2581wako": 4501, "\u2581suna": 4502, "\u2581watan": 4503, "\u2581kya": 4504, "\u258118": 4505, "penda": 4506, "\u2581yu": 4507, "\u2581abu": 4508, "\u2581gaba": 4509, "\u2581bora": 4510, "faa": 4511, "\u2581abin": 4512, "jibu": 4513, "\u2581ikiwa": 4514, "\u2581uki": 4515, "amini": 4516, "\u2581mimi": 4517, "\u2581yin": 4518, "\u2581mama": 4519, "\u2581afrika": 4520, "\u2581kabla": 4521, "\u2581nyingi": 4522, "\u2581ccm": 4523, "wani": 4524, "\u2581mta": 4525, "\u2581kwani": 4526, "\u2581yote": 4527, "\u2581jana": 4528, "hani": 4529, "hili": 4530, "zungumza": 4531, "fika": 4532, "\u2581ndo": 4533, "\u25812018": 4534, "\u2581muhimu": 4535, "\u258114": 4536, "\u2581vile": 4537, ",000": 4538, "\u2581bado": 4539, "\u2581haka": 4540, "\u2581sai": 4541, "\u2581yangu": 4542, "wanda": 4543, "\u258113": 4544, "\u2581mawa": 4545, "\u2581waka": 4546, "yya": 4547, "\u2581wasu": 4548, "\u2581eneo": 4549, "lun": 4550, "baya": 4551, "lum": 4552, "ingia": 4553, "\u2581mkoa": 4554, "\u2581ile": 4555, "chukua": 4556, "\u2581wetu": 4557, "\u2581maendeleo": 4558, "\u2581kutumia": 4559, "\u2581gani": 4560, "\u2581kup": 4561, "\u258116": 4562, "\u2581jambo": 4563, "\u2581yeye": 4564, "\u25812019": 4565, "ibu": 4566, "\u2581uchaguzi": 4567, "\u2581alipo": 4568, "kula": 4569, "\u2581pili": 4570, "\u2581shugaban": 4571, "\u2581zake": 4572, "\u2581dhidi": 4573, "\u2581kule": 4574, "\u2581elimu": 4575, "\u2581hakuna": 4576, "\u2581picha": 4577, "\u2581mbili": 4578, "\u2581dk": 4579, "\u2581asili": 4580, "\u2581duk": 4581, "\u2581tume": 4582, "\u2581polisi": 4583, "\u2581aban": 4584, "\u2581huko": 4585, "shen": 4586, "\u2581hasa": 4587, "tana": 4588, "\u2581ida": 4589, "\u2581kwenda": 4590, "onyesha": 4591, "\u2581zinazo": 4592, "\u2581wale": 4593, "\u2581yadda": 4594, "\u2581sio": 4595, "50": 4596, "yama": 4597, "\u2581matsa": 4598, "\u2581mna": 4599, "\u2581wilaya": 4600, "\u2581afya": 4601, "\u25812016": 4602, "\u258117": 4603, "30": 4604, "\u2581yaliyo": 4605, "\u2581mpaka": 4606, "onekana": 4607, "qo": 4608, "\u2581yenye": 4609, "\u2581aina": 4610, "\u2581nguvu": 4611, "\u2581kute": 4612, "\u2581Kwa": 4613, "\u2581mjini": 4614, "mini": 4615, "\u2581nime": 4616, "\u2581kita": 4617, "\u2581kus": 4618, "1.": 4619, "wake": 4620, "\u2581ake": 4621, "\u2581mchezo": 4622, "\u2581ila": 4623, "\u2581mkubwa": 4624, "\u2581hau": 4625, "\u2581maeneo": 4626, "\u2581mali": 4627, "\u2581kura": 4628, "\u2581lazima": 4629, "\u2581simu": 4630, "\u2581vijana": 4631, "\u2581mwisho": 4632, "\u2581shule": 4633, "\u2581chan": 4634, "ezi": 4635, "\u2581dau": 4636, "\u2581nina": 4637, "\u2581matu": 4638, "\u2581tatu": 4639, "\u2581inda": 4640, "\u2581wala": 4641, "2.": 4642, "\u2581mkutano": 4643, "\u258130": 4644, "\u2581hizi": 4645, "\u2581wu": 4646, "\u2581kampuni": 4647, "\u2581vizuri": 4648, "soma": 4649, "\u2581zama": 4650, "sti": 4651, "nin": 4652, "\u2581mtoto": 4653, "\u2581fara": 4654, "\u2581uwezo": 4655, "piga": 4656, "\u2581jina": 4657, "\u25812015": 4658, "esho": 4659, "\u2581juma": 4660, "\u2581mbele": 4661, "\u2581baba": 4662, "\u2581jinsi": 4663, "\u2581upande": 4664, "angalia": 4665, "\u2581maz": 4666, "\u2581vitu": 4667, "kosa": 4668, "\u2581kipindi": 4669, "\u2581zime": 4670, "\u2581kuja": 4671, "\u2581wanawake": 4672, "\u2581samu": 4673, "\u2581irin": 4674, "uzi": 4675, "\u2581dunia": 4676, "\u2581dara": 4677, "pewa": 4678, "\u2581mutu": 4679, "\u2581tuli": 4680, "\u258124": 4681, "\u2581\u0257": 4682, "\u258125": 4683, "\u2581kuba": 4684, "\u2581kyau": 4685, "\u2581nyumba": 4686, "\u2581bab": 4687, "\u2581wiki": 4688, "\u2581sisi": 4689, "\u2581masa": 4690, "\u2581kula": 4691, "\u2581mwezi": 4692, "\u2581wazi": 4693, "11": 4694, "\u2581duniani": 4695, "\u2581wangu": 4696, "\u2581ib": 4697, "\u2581ndiyo": 4698, "\u2581mwen": 4699, "\u2581amma": 4700, "qe": 4701, "\u2581naye": 4702, "\u2581ada": 4703, "\u2581kawaida": 4704, "\u2581umoja": 4705, "\u2581yanayo": 4706, "\u2581unaweza": 4707, "lai": 4708, "\u2581idan": 4709, "\u2581milioni": 4710, "\u2581mkono": 4711, "24": 4712, "\u2581msingi": 4713, "hun": 4714, "9.": 4715, "\u2581kenya": 4716, "\u2581kusema": 4717, "1,": 4718, "\u2581karibu": 4719, "hamu": 4720, "\u2581bayyana": 4721, "/0": 4722, "\u2581anaye": 4723, "xo": 4724, "\u2581mengi": 4725, "\u2581namna": 4726, "\u2581marekani": 4727, "\u2581sawa": 4728, "jani": 4729, "\u2581noma": 4730, "\u2581saa": 4731, "\u2581suala": 4732, "\u2581kamar": 4733, "25": 4734, "\u2581wizara": 4735, "huru": 4736, "asisi": 4737, "rka": 4738, "\u2581huyu": 4739, "\u25811.": 4740, "zea": 4741, "\u2581mutane": 4742, "\u2581ofisi": 4743, "\u2581mfano": 4744, "amua": 4745, "\u2581lime": 4746, "\u2581kutu": 4747, "2,": 4748, "\u258123": 4749, "geni": 4750, "\u2581utu": 4751, "\u2581bunge": 4752, "\u2581aiki": 4753, "\u2581taka": 4754, "\u2581mkoani": 4755, "\u2581kika": 4756, "\u2581mazingira": 4757, "yyar": 4758, "\u2581nzuri": 4759, "keza": 4760, "jiri": 4761, "\u2581tarehe": 4762, "\u2581kiwango": 4763, "\u2581tangu": 4764, "\u2581unao": 4765, "\u258128": 4766, "\u2581ranar": 4767, "wane": 4768, "\u2581mataifa": 4769, "hali": 4770, "\u2581nao": 4771, "\u2581gari": 4772, "\u2581michezo": 4773, "\u2581baya": 4774, "\u2581matokeo": 4775, "\u2581vitabu": 4776, "3.": 4777, "\u2581musa": 4778, "\u2581huwa": 4779, "\u2581dawa": 4780, "\u2581uwanja": 4781, "sar": 4782, "\u2581biyu": 4783, "\u2581mfumo": 4784, "\u2581tuta": 4785, "\u2581daya": 4786, "wali": 4787, "uran": 4788, "yon": 4789, "zama": 4790, "kawa": 4791, "\u2581aku": 4792, "mma": 4793, "\u2581siasa": 4794, "\u2581sama": 4795, "\u2581kayan": 4796, "\u2581nyumbani": 4797, "\u2581kuliko": 4798, "\u2581mechi": 4799, "wahi": 4800, "\u2581ambalo": 4801, "\u2581mpango": 4802, "itwa": 4803, "\u2581kwake": 4804, "\u2581amani": 4805, "4.": 4806, "giyar": 4807, "15": 4808, "\u2581yoyote": 4809, "\u258127": 4810, "\u2581kari": 4811, "\u2581wakiwa": 4812, "ongoza": 4813, "\u2581maneno": 4814, "\u2581ukweli": 4815, "\u2581kuona": 4816, "\u2581yame": 4817, "\u2581maba": 4818, "uliza": 4819, "kuta": 4820, "\u2581usalama": 4821, "\u2581100": 4822, "\u2581mke": 4823, "\u2581kamati": 4824, "\u2581ndugu": 4825, "60": 4826, "\u25812012": 4827, "19": 4828, "\u2581haraka": 4829, "\u2581kuongeza": 4830, "\u2581bali": 4831, "\u2581mradi": 4832, "andika": 4833, "\u2581mengine": 4834, "\u2581zamani": 4835, "\u2581shughuli": 4836, "\u2581shirika": 4837, "ration": 4838, "dau": 4839, "tro": 4840, "\u2581ndege": 4841, "\u2581yawa": 4842, "\u2581sita": 4843, "\u2581kidogo": 4844, "\u2581kisha": 4845, "hana": 4846, "\u2581asa": 4847, "\u2581\u0199a": 4848, "\u2581uko": 4849, "\u2581kushiriki": 4850, "\u2581bwana": 4851, "\u2581moto": 4852, "kundi": 4853, "\u2581duniya": 4854, "\u2581mahakama": 4855, "\u2581kisa": 4856, "\u2581simba": 4857, "23": 4858, "\u2581suke": 4859, "\u2581hala": 4860, "\u2581bai": 4861, "\u2581namba": 4862, "\u2581nuna": 4863, "dun": 4864, "\u2581saboda": 4865, "\u2581umma": 4866, "\u2581rasmi": 4867, "mama": 4868, "\u2581jeshi": 4869, "fiya": 4870, "\u2581kituo": 4871, "\u258126": 4872, "\u2581taasisi": 4873, "80": 4874, "21": 4875, "\u2581mji": 4876, "\u258150": 4877, "\u258121": 4878, "\u2581yesu": 4879, "\u2581najeriya": 4880, "\u2581maso": 4881, "26": 4882, "\u2581ciki": 4883, "\u2581chakula": 4884, "\u2581kesi": 4885, "40": 4886, "90": 4887, "ungo": 4888, "\u2581lengo": 4889, "\u25812013": 4890, "yaka": 4891, "\u2581wasan": 4892, "\u2581john": 4893, "\u2581bidhaa": 4894, "\u2581klabu": 4895, "\u2581kuendelea": 4896, "\u2581mbunge": 4897, "\u2581makubwa": 4898, "\u2581haja": 4899, "\u2581wapi": 4900, "\u2581kuweka": 4901, "\u25812014": 4902, "\u2581uhuru": 4903, "\u2581kata": 4904, "\u2581babu": 4905, "\u2581kusini": 4906, "\u2581mbaya": 4907, "\u2581chuo": 4908, "\u2581samun": 4909, "5.": 4910, "\u2581mujibu": 4911, "\u25812020": 4912, "\u2581ujumbe": 4913, "\u2581mwili": 4914, "\u2581mafi": 4915, "\u2581mwanamke": 4916, "\u2581inaweza": 4917, "9,": 4918, "\u2581pesa": 4919, "\u2581kile": 4920, "\u2581maoni": 4921, "\u2581kundi": 4922, "\u2581pha": 4923, "\u2581wak": 4924, "\u2581lililo": 4925, "\u2581uchumi": 4926, "\u2581hana": 4927, "\u2581baraza": 4928, "\u2581katiba": 4929, "\u2581imani": 4930, "\u2581lugha": 4931, "\u2581fulani": 4932, "\u2581chadema": 4933, "kanin": 4934, "\u2581dkt": 4935, "\u2581msaada": 4936, "\u2581wam": 4937, "\u2581zetu": 4938, "\u2581binafsi": 4939, "\u2581kasance": 4940, "\u2581damu": 4941, "\u2581anga": 4942, "ongea": 4943, "\u2581idadi": 4944, "\u2581umeme": 4945, "yoyin": 4946, "\u2581kuo": 4947, "pri": 4948, "anan": 4949, "\u2581sekta": 4950, "\u2581nani": 4951, "\u2581china": 4952, "8.": 4953, "\u2581yau": 4954, "\u258122": 4955, "\u2581uba": 4956, "hau": 4957, "\u2581wabunge": 4958, "\u2581mhe": 4959, "16": 4960, "\u2581maelezo": 4961, "\u2581usiku": 4962, "\u2581allah": 4963, "\u2581ule": 4964, "\u2581kilimo": 4965, "urin": 4966, "7.": 4967, "tuna": 4968, "ishe": 4969, "katar": 4970, "\u2581mamlaka": 4971, "\u2581nyuma": 4972, "\u2581moyo": 4973, "\u2581ndoa": 4974, "\u2581hoja": 4975, "\u2581akan": 4976, "\u2581badala": 4977, "poteza": 4978, "mwen": 4979, "\u2581mana": 4980, "\u2581nne": 4981, "\u2581jami": 4982, "14": 4983, "13": 4984, "\u2581kujua": 4985, "\u2581isa": 4986, "\u2581kira": 4987, "\u2581babban": 4988, "qin": 4989, "\u2581kufu": 4990, "70": 4991, "\u2581binadamu": 4992, "\u25812.": 4993, "\u2581matsayin": 4994, "endesha": 4995, "\u2581ardhi": 4996, "\u2581kufa": 4997, "\u2581chake": 4998, "\u2581huru": 4999, "\u2581awali": 5000, "\u2581tano": 5001, "\u2581fursa": 5002, "\u2581nai": 5003, "sai": 5004, "\u2581iwe": 5005, "\u2581kungiyar": 5006, "\u2581masuala": 5007, "\u2581mafuta": 5008, "iya": 5009, "unua": 5010, "\u2581yayin": 5011, "\u2581hospitali": 5012, "\u2581dini": 5013, "\u2581wawili": 5014, "\u2581nia": 5015, "\u2581kim": 5016, "\u2581kujenga": 5017, "\u2581jimbo": 5018, "\u2581karibuni": 5019, "\u2581vyama": 5020, "\u2581tukio": 5021, "\u2581hiki": 5022, "ishia": 5023, "zidi": 5024, "\u2581maza": 5025, "\u2581gida": 5026, "\u2581musu": 5027, "\u2581ruwa": 5028, "\u2581kuchukua": 5029, "\u2581shir": 5030, "\u2581kuingia": 5031, "gama": 5032, "\u2581akwai": 5033, "\u2581vifaa": 5034, "\u2581tara": 5035, "\u25811,": 5036, "\u2581pekee": 5037, "\u2581itakuwa": 5038, "22": 5039, "\u2581wadanda": 5040, "\u2581gidan": 5041, "\u2581sauran": 5042, "annan": 5043, "\u2581kufikia": 5044, "\u2581nasa": 5045, "\u2581kumi": 5046, "\u2581tso": 5047, "\u2581wasa": 5048, "\u2581msimu": 5049, "\u2581tana": 5050, "\u2581shin": 5051, "\u2581shiga": 5052, "\u2581gud": 5053, "tur": 5054, "\u2581gharama": 5055, "kuna": 5056, "jaa": 5057, "enge": 5058, "\u2581dola": 5059, "\u2581soko": 5060, "\u2581kisiasa": 5061, "\u2581kanisa": 5062, "bani": 5063, "\u2581matukio": 5064, "leta": 5065, "\u2581jari": 5066, "iyyar": 5067, "\u25812010": 5068, "liza": 5069, "\u0199a": 5070, "\u2581tabia": 5071, "\u258140": 5072, "\u2581mala": 5073, "18": 5074, "\u2581neno": 5075, "12": 5076, "\u2581yule": 5077, "\u2581united": 5078, "\u2581safari": 5079, "\u2581kasu": 5080, "dishi": 5081, "\u2581tatta": 5082, "kutana": 5083, "\u2581ziara": 5084, "\u2581jamaa": 5085, "\u2581mutum": 5086, "17": 5087, "\u2581kasi": 5088, "\u2581muziki": 5089, "kaa": 5090, "\u2581mwi": 5091, "\u2581lokaci": 5092, "\u2581nayo": 5093, "\u2581shekara": 5094, "uku": 5095, "\u2581akili": 5096, "baki": 5097, "\u2581dake": 5098, "\u2581ushindi": 5099, "\u2581wadau": 5100, "\u2581hada": 5101, "\u2581humo": 5102, "\u2581dodoma": 5103, "\u2581ulaya": 5104, "\u2581rayu": 5105, "katika": 5106, "\u2581jama": 5107, "\u2581iko": 5108, "bai": 5109, "\u2581mafanikio": 5110, "\u2581zaman": 5111, "\u2581siyo": 5112, "\u2581sahihi": 5113, "\u2581mkataba": 5114, "\u2581ipo": 5115, "usi": 5116, "\u2581hatari": 5117, "onesha": 5118, "sy": 5119, "\u2581tsakanin": 5120, "\u2581jumla": 5121, "\u2581rahisi": 5122, "\u2581hakan": 5123, "\u2581raia": 5124, "\u2581sara": 5125, "pia": 5126, "\u25813.": 5127, "alamu": 5128, "\u2581sifa": 5129, "\u2581macho": 5130, "\u2581kodi": 5131, "\u2581uwa": 5132, "tation": 5133, "sea": 5134, "\u2581yaki": 5135, "\u2581mape": 5136, "\u2581mun": 5137, "\u2581mdogo": 5138, "\u2581kampeni": 5139, "wepo": 5140, "\u2581kucheza": 5141, "\u2581siya": 5142, "\u2581mahali": 5143, "\u2581kana": 5144, "\u2581vyote": 5145, "\u2581miradi": 5146, "zaliwa": 5147, "\u2581anaweza": 5148, "\u2581yale": 5149, "aji": 5150, "kezo": 5151, "\u2581kure": 5152, "uwa": 5153, "julikana": 5154, "\u2581dama": 5155, "\u2581Kama": 5156, "\u2581gudanar": 5157, "\u2581viwanda": 5158, "\u2581bilioni": 5159, "\u2581ganin": 5160, "kers": 5161, "\u2581ajira": 5162, "\u2581sauti": 5163, "\u2581utawala": 5164, "pinga": 5165, "\u2581banga": 5166, "\u2581yayi": 5167, "\u2581toka": 5168, "\u2581manu": 5169, "\u2581bure": 5170, "fany": 5171, "\u25812011": 5172, "bwe": 5173, "zam": 5174, "\u2581kuni": 5175, "hada": 5176, "\u2581ndiye": 5177, "\u2581mzee": 5178, "\u2581wanachama": 5179, "\u2581kijamii": 5180, "\u2581yeyote": 5181, "\u2581mume": 5182, "\u2581kudi": 5183, "kisa": 5184, "\u2581yata": 5185, "elewa": 5186, "chagua": 5187, "uza": 5188, "\u2581madini": 5189, "\u2581nama": 5190, "\u2581kali": 5191, "\u2581ndogo": 5192, "\u2581wapo": 5193, "ses": 5194, "\u2581shine": 5195, "\u2581lafiya": 5196, "\u2581kime": 5197, "\u2581uamuzi": 5198, "\u2581kwao": 5199, "\u2581magari": 5200, "\u2581miezi": 5201, "\u2581zaben": 5202, "lf": 5203, "\u2581soma": 5204, "\u2581kashe": 5205, "\u2581mapema": 5206, "\u2581kupiga": 5207, "\u2581sanya": 5208, "\u2581kupunguza": 5209, "\u2581utafiti": 5210, "\u2581kaka": 5211, "\u2581faida": 5212, "\u2581thamani": 5213, "\u2581samar": 5214, "\u2581mash": 5215, "\u2581shekaru": 5216, "\u2581mwalimu": 5217, "\u2581wanaume": 5218, "\u2581\u0199ar": 5219, "cti": 5220, "2)": 5221, "kokin": 5222, "dul": 5223, "\u2581kichwa": 5224, "\u2581shida": 5225, "\u2581kamata": 5226, "\u2581kusoma": 5227, "\u2581guda": 5228, "ambia": 5229, "!!!!": 5230, "\u2581\u0257a": 5231, "\u2581kitabu": 5232, "\u2581uchunguzi": 5233, "27": 5234, "yoyi": 5235, "\u258129": 5236, "kano": 5237, "\u2581kulia": 5238, "\u2581kuishi": 5239, "\u2581kanuni": 5240, "hiri": 5241, "\u2581africa": 5242, "\u2581cika": 5243, "tini": 5244, "\u2581wateja": 5245, "\u2581mh": 5246, "\u2581walimu": 5247, "\u2581wasio": 5248, "gaji": 5249, "\u2581roho": 5250, "\u2581barua": 5251, "\u2581buhari": 5252, "\u2581kutafuta": 5253, "jaribu": 5254, "pate": 5255, "fia": 5256, "\u2581ufu": 5257, "\u2581kawo": 5258, "\u2581birnin": 5259, "\u2581kiba": 5260, "hama": 5261, "cts": 5262, "\u2581chochote": 5263, "fy": 5264, "zela": 5265, "\u2581vipi": 5266, "\u2581kusaidia": 5267, "\u2581kutaka": 5268, "\u2581nasi": 5269, "\u2581makala": 5270, "\u2581kikuu": 5271, "\u2581makini": 5272, "bila": 5273, "\u2581xa": 5274, "dle": 5275, "tume": 5276, "hata": 5277, "\u2581kuangalia": 5278, "\u2581dace": 5279, "\u2581lea": 5280, "\u2581gazeti": 5281, "kataa": 5282, "\u2581kaya": 5283, "\u2581wanaweza": 5284, "\u2581mawazo": 5285, "\u2581ripoti": 5286, "\u2581kowa": 5287, "\u2581rangi": 5288, "\u2581wadan": 5289, "3)": 5290, "xu": 5291, "\u25814.": 5292, "\u2581wakuu": 5293, "\u2581kesho": 5294, "\u2581neman": 5295, "\u2581kuleta": 5296, "\u2581hakika": 5297, "\u2581kitaifa": 5298, "\u2581nzima": 5299, "\u2581kutosha": 5300, "\u2581cutar": 5301, "\u258160": 5302, "\u2581kasashen": 5303, "\u2581swali": 5304, "\u2581mwandishi": 5305, "leo": 5306, "\u2581kiuchumi": 5307, "\u2581imekuwa": 5308, "\u2581mako": 5309, "\u2581ingawa": 5310, "\u2581tovuti": 5311, "\u2581amin": 5312, "\u2581ndipo": 5313, "\u25812,": 5314, "\u2581wamekuwa": 5315, "sasa": 5316, "\u2581hawana": 5317, "\u2581kadi": 5318, "\u2581mpira": 5319, "\u2581kuweza": 5320, "sic": 5321, "\u2581filamu": 5322, "\u2581yar": 5323, "\u2581mapato": 5324, "\u2581hausa": 5325, "habari": 5326, "\u2581daraja": 5327, "bun": 5328, "\u2581jiji": 5329, "laa": 5330, "\u2581uvu": 5331, "\u2581ngazi": 5332, "\u2581naomba": 5333, "\u2581vingine": 5334, "\u2581mwanzo": 5335, "\u2581indi": 5336, "\u2581tho": 5337, "\u2581mika": 5338, "\u2581maku": 5339, "\u2581abi": 5340, "\u2581ajali": 5341, "uliwa": 5342, "\u2581iran": 5343, "\u2581idara": 5344, "\u2581daban": 5345, "\u2581asubuhi": 5346, "kumbuka": 5347, "\u2581vitendo": 5348, "acha": 5349, "\u2581Katika": 5350, "\u2581alim": 5351, "\u2581manyan": 5352, "\u2581zenye": 5353, "\u2581makosa": 5354, "\u2581ayyu": 5355, "\u2581furaha": 5356, "\u2581lai": 5357, "\u2581shekarar": 5358, "\u2581wakazi": 5359, "\u2581kuzuia": 5360, "\u2581yace": 5361, "sis": 5362, "\u2581matibabu": 5363, "\u2581urais": 5364, "\u2581kulingana": 5365, "\u2581majina": 5366, "\u2581siri": 5367, "\u2581rafiki": 5368, "\u2581safi": 5369, "\u2581faru": 5370, "\u2581askari": 5371, "\u2581kosa": 5372, "\u2581juhudi": 5373, "\u2581wakulima": 5374, "ripoti": 5375, "\u2581salama": 5376, "\u2581programu": 5377, "\u2581vituo": 5378, "\u2581alama": 5379, "\u2581zako": 5380, "\u2581ushauri": 5381, "\u2581maswali": 5382, "lahi": 5383, "\u2581hewa": 5384, "\u2581upendo": 5385, "ondoka": 5386, "bele": 5387, "\u2581langu": 5388, "\u2581teknolojia": 5389, "\u2581yenu": 5390, "\u2581tuzo": 5391, "\u2581madai": 5392, "\u2581sannan": 5393, "\u2581kamili": 5394, "gani": 5395, "\u2581wowote": 5396, "\u2581dada": 5397, "inyi": 5398, "\u2581kaskazini": 5399, "alisema": 5400, "\u2581umuhimu": 5401, "\u2581kada": 5402, "\u2581maamuzi": 5403, "\u2581ulimwengu": 5404, "\u2581mazuri": 5405, "\u2581mahakamani": 5406, "\u2581malengo": 5407, "\u2581sina": 5408, "\u2581uhakika": 5409, "\u2581kuelekea": 5410, "cture": 5411, "\u2581upo": 5412, "\u2581taron": 5413, "\u2581viwanja": 5414, "\u2581pombe": 5415, "\u2581mbinu": 5416, "\u2581shaka": 5417, "dre": 5418, "tuba": 5419, "\u2581wimbo": 5420, "\u2581aya": 5421, "\u2581makundi": 5422, "\u2581muka": 5423, "\u2581tafa": 5424, "\u2581ulikuwa": 5425, "\u2581ua": 5426, "\u2581nusu": 5427, "mwi": 5428, "\u2581bari": 5429, "\u2581mb": 5430, "\u2581ako": 5431, "\u2581ujumla": 5432, "\u2581koma": 5433, "\u2581zan": 5434, "\u2581bisa": 5435, "dinga": 5436, "\u2581awe": 5437, "\u2581huenda": 5438, "\u2581maombi": 5439, "\u25810.": 5440, "\u2581sakamakon": 5441, "\u2581june": 5442, "\u2581taba": 5443, "\u2581wai": 5444, "\u2581july": 5445, "\u2581sani": 5446, "\u2581sura": 5447, "\u2581zangu": 5448, "fara": 5449, "\u2581yasi": 5450, "\u2581uganda": 5451, "\u2581majibu": 5452, "\u2581ubora": 5453, "\u2581labda": 5454, "nun": 5455, "kara": 5456, "\u2581january": 5457, "\u2581kuwepo": 5458, "\u2581kujiunga": 5459, "\u2581amekuwa": 5460, "\u2581shirin": 5461, "\u2581jumuiya": 5462, "\u2581yen": 5463, "\u2581nemi": 5464, "\u25815.": 5465, "\u2581malipo": 5466, "\u2581karanta": 5467, "\u2581isra": 5468, "tangu": 5469, "\u2581nishati": 5470, "\u2581bada": 5471, "yara": 5472, "\u2581muna": 5473, "lakini": 5474, "\u2581kudin": 5475, "\u2581sami": 5476, "\u2581miwili": 5477, "\u2581kisheria": 5478, "\u2581hifadhi": 5479, "\u2581sabon": 5480, "\u2581kwana": 5481, "\u2581uzalishaji": 5482, "\u2581ikulu": 5483, "\u2581ute": 5484, "\u2581ado": 5485, "\u2581mauaji": 5486, "\u2581kiswahili": 5487, "\u2581masomo": 5488, "andikwa": 5489, "jali": 5490, "\u2581wurin": 5491, "\u2581naku": 5492, "\u2581magana": 5493, "\u2581zile": 5494, "\u2581maadili": 5495, "\u2581ishi": 5496, "\u2581wadannan": 5497, "\u2581garin": 5498, "\u2581duba": 5499, "\u2581dhambi": 5500, "\u2581mab": 5501, "\u2581jiki": 5502, "\u2581oktoba": 5503, "\u2581kinyume": 5504, "kaji": 5505, "\u2581idi": 5506, "\u2581yara": 5507, "\u2581kwetu": 5508, "\u2581kukaa": 5509, "\u2581kwako": 5510, "\u2581karin": 5511, "\u2581wawa": 5512, "\u2581fito": 5513, "\u2581kuonyesha": 5514, "\u2581kulipa": 5515, "\u2581kare": 5516, "\u2581ayi": 5517, "jibi": 5518, "\u2581joto": 5519, "\u2581ukiwa": 5520, "gis": 5521, "\u2581kuomba": 5522, "\u2581haina": 5523, "\u2581iwapo": 5524, "\u2581mawili": 5525, "\u2581mch": 5526, "\u2581jioni": 5527, "sante": 5528, "\u2581kisasa": 5529, "kai": 5530, "\u258180": 5531, "\u2581gaban": 5532, "\u2581shirya": 5533, "\u2581nami": 5534, "\u2581abinci": 5535, "\u2581kambi": 5536, "\u2581machi": 5537, "sul": 5538, "plo": 5539, "\u2581kano": 5540, "\u2581silaha": 5541, "\u258135": 5542, "\u2581bahati": 5543, "\u0199i": 5544, "\u2581shugaba": 5545, "\u2581wanyama": 5546, "\u2581nawa": 5547, "eka": 5548, "\u2581bayar": 5549, "\u2581abubuwan": 5550, "\u2581wajibu": 5551, "mie": 5552, "\u25813,": 5553, "\u2581baina": 5554, "\u2581kike": 5555, "\u2581nane": 5556, "\u2581ajabu": 5557, "\u2581dalili": 5558, "\u2581sanda": 5559, "\u2581isiyo": 5560, "\u2581lolote": 5561, "\u258131": 5562, "\u2581kowane": 5563, "\u2581kurudi": 5564, "\u2581sanar": 5565, "\u2581nd": 5566, "\u2581kutokea": 5567, "\u2581kushinda": 5568, "unar": 5569, "\u2581arewa": 5570, "\u2581lenye": 5571, "\u2581ufisadi": 5572, "\u2581kudu": 5573, "\u2581utendaji": 5574, "\u2581nigeria": 5575, "\u2581february": 5576, "\u2581\u0199asa": 5577, "\u2581maafisa": 5578, "mzi": 5579, "\u2581october": 5580, "\u25812009": 5581, "\u2581amurka": 5582, "masha": 5583, "\u2581shafin": 5584, "\u2581rana": 5585, "\u2581ngumu": 5586, "\u2581girma": 5587, "\u2581kuacha": 5588, "\u2581bukatar": 5589, "\u2581tsohon": 5590, "\u2581makuu": 5591, "\u2581watatu": 5592, "\u2581damar": 5593, "\u2581maslahi": 5594, "\u2581magan": 5595, "\u2581zawadi": 5596, "\u2581kuhusiana": 5597, "hawa": 5598, "\u2581mingi": 5599, "\u2581kuondoa": 5600, "\u2581mwanaume": 5601, "\u2581ruwan": 5602, "\u2581kufuatia": 5603, "\u2581kau": 5604, "\u2581athari": 5605, "\u2581halin": 5606, "\u2581kutengeneza": 5607, "\u2581kuondoka": 5608, "anin": 5609, "\u2581lako": 5610, "\u2581kyauta": 5611, "kamata": 5612, "\u2581kupokea": 5613, "\u2581kuandika": 5614, "\u2581mzima": 5615, "\u258190": 5616, "\u2581waye": 5617, "\u2581vime": 5618, "\u2581nguo": 5619, "\u2581utakuwa": 5620, "\u2581fada": 5621, "\u2581fasa": 5622, "\u2581letu": 5623, "picha": 5624, "panda": 5625, "\u2581kuhu": 5626, "\u2581wato": 5627, "\u2581kiti": 5628, "\u258170": 5629, "\u2581saka": 5630, "\u2581masana": 5631, "\u2581shan": 5632, "\u2581makazi": 5633, "\u2581daidai": 5634, "\u2581ayyukan": 5635, "\u2581fitar": 5636, "\u2581mahusiano": 5637, "\u2581apc": 5638, "\u2581dole": 5639, "\u2581yuko": 5640, "\u2581zoezi": 5641, "\u2581ungu": 5642, "\u2581kukosa": 5643, "kina": 5644, "uu": 5645, "sara": 5646, "\u2581kote": 5647, "\u2581kad": 5648, "\u2581hisia": 5649, "\u2581mashirika": 5650, "sus": 5651, "tawa": 5652, "\u2581atakuwa": 5653, "\u2581bakin": 5654, "\u2581kitendo": 5655, "\u2581takwimu": 5656, "\u2581hotuba": 5657, "\u2581msimamo": 5658, "tari": 5659, "\u2581mno": 5660, "\u2581sanaa": 5661, "haha": 5662, "\u2581waje": 5663, "yoni": 5664, "\u2581hannun": 5665, "ifu": 5666, "\u2581kulinda": 5667, "\u2581500": 5668, "\u2581zabe": 5669, "\u2581magharibi": 5670, "\u2581chache": 5671, "\u2581wito": 5672, "\u2581kumbukumbu": 5673, "\u2581asali": 5674, "\u2581miguu": 5675, "\u2581mei": 5676, "\u2581tas": 5677, "fes": 5678, "\u2581bun": 5679, "saka": 5680, "\u2581yanayin": 5681, "\u2581viwango": 5682, "\u2581karka": 5683, "\u2581kufuata": 5684, "\u2581ahadi": 5685, "dara": 5686, "\u2581waya": 5687, "\u2581usafiri": 5688, "\u2581zasu": 5689, "\u2581bri": 5690, "\u2581shari": 5691, "\u2581mfupi": 5692, "\u2581aga": 5693, "tics": 5694, "\u2581ishara": 5695, "\u2581india": 5696, "tse": 5697, "\u2581wanasema": 5698, "\u2581katikati": 5699, "\u2581kuj": 5700, "\u2581wataalamu": 5701, "\u2581kwangu": 5702, "\u2581jukumu": 5703, "\u2581mimba": 5704, "andan": 5705, "\u2581baki": 5706, "\u2581mchana": 5707, "mara": 5708, "cce": 5709, "\u2581wenu": 5710, "\u2581hassan": 5711, "\u2581bana": 5712, "\u2581rwanda": 5713, "\u2581binti": 5714, "\u2581bincike": 5715, "\u25814,": 5716, "\u2581fata": 5717, "aika": 5718, "\u2581zargin": 5719, "\u2581shirikisho": 5720, "\u2581gabatar": 5721, "\u2581kasuwan": 5722, "alam": 5723, "\u2581kukutana": 5724, "wakati": 5725, "\u2581marafiki": 5726, "\u2581umar": 5727, "baada": 5728, "\u2581yanar": 5729, "kiyar": 5730, "\u2581kul": 5731, "\u2581talla": 5732, "\u2581mitatu": 5733, "\u2581aman": 5734, "\u2581trump": 5735, "\u2581wange": 5736, "\u2581agosti": 5737, "\u2581zin": 5738, "\u2581kansa": 5739, "\u2581labarin": 5740, "\u2581corona": 5741, "\u2581wasiwasi": 5742, "\u2581tamaa": 5743, "\u2581jengo": 5744, "sisi": 5745, "\u2581kimoja": 5746, "\u2581fiye": 5747, "\u2581ibada": 5748, "\u2581adhabu": 5749, "\u2581198": 5750, "kila": 5751, "\u2581kamu": 5752, "\u2581amince": 5753, "erre": 5754, "\u2581mpe": 5755, "\u258145": 5756, "\u2581uwezekano": 5757, "\u2581english": 5758, "\u2581karkashin": 5759, "\u2581rai": 5760, "\u2581vingi": 5761, "\u2581mah": 5762, "\u2581ido": 5763, "ahidi": 5764, "\u2581uwan": 5765, "\u2581usimamizi": 5766, "\u2581nae": 5767, "\u2581wadogo": 5768, "\u258110,": 5769, "\u25815,": 5770, "\u2581mvua": 5771, "\u2581kutambua": 5772, "\u2581hukumu": 5773, "\u2581duka": 5774, "\u2581hari": 5775, "\u2581dauki": 5776, "\u2581jirani": 5777, "\u2581mitaa": 5778, "\u2581uongo": 5779, "\u2581gano": 5780, "\u2581bbc": 5781, "\u2581kuri": 5782, "twe": 5783, "\u2581bibi": 5784, "\u2581ndoto": 5785, "\u2581oo": 5786, "\u2581njema": 5787, "\u2581takarar": 5788, "\u2581kukuza": 5789, "\u2581zaka": 5790, "\u2581siyasa": 5791, "\u2581nasara": 5792, "\u2581labaran": 5793, "\u2581Lakini": 5794, "hausa": 5795, "tent": 5796, "\u2581hadithi": 5797, "unu": 5798, "\u2581shirye": 5799, "kane": 5800, "\u2581dawo": 5801, "\u2581wachache": 5802, "\u2581joseph": 5803, "tumwa": 5804, "leza": 5805, "umma": 5806, "\u2581jua": 5807, "\u2581pwani": 5808, "\u2581miji": 5809, "ufa": 5810, "\u2581sada": 5811, "\u2581kudumu": 5812, "\u2581huwezi": 5813, "\u2581peke": 5814, "\u2581maya": 5815, "unin": 5816, "\u2581waislamu": 5817, "\u2581kimya": 5818, "daban": 5819, "\u2581bahari": 5820, "\u2581ufanisi": 5821, "banda": 5822, "\u2581tattauna": 5823, "\u2581ucha": 5824, "\u2581aprili": 5825, "\u2581utoaji": 5826, "\u2581dukkan": 5827, "\u2581sudan": 5828, "\u2581mto": 5829, "ungwa": 5830, "\u2581yase": 5831, "\u2581waha": 5832, "\u2581kulikuwa": 5833, "\u2581karu": 5834, "\u2581yam": 5835, "wun": 5836, "\u2581kutangaza": 5837, "\u2581300": 5838, "\u2581barani": 5839, "\u2581alham": 5840, "\u0257i": 5841, "\u2581kunga": 5842, "\u2581akaunti": 5843, "kum": 5844, "\u2581jirgin": 5845, "\u2581mtazamo": 5846, "\u2581gina": 5847, "\u2581gabata": 5848, "\u2581kusan": 5849, "\u2581nazo": 5850, "baba": 5851, "\u2581alha": 5852, "\u2581mtaa": 5853, "\u2581hakuwa": 5854, "\u2581rage": 5855, "\u2581chumba": 5856, "\u2581mgogoro": 5857, "\u2581manchester": 5858, "\u2581abubuwa": 5859, "adda": 5860, "sive": 5861, "\u2581pdp": 5862, "\u2581tunaweza": 5863, "\u2581wuce": 5864, "isheni": 5865, "\u2581kuonekana": 5866, "\u2581muhammad": 5867, "\u2581mkali": 5868, "\u2581kuda": 5869, "wasa": 5870, "\u2581\u0253": 5871, "\u2581biya": 5872, "hii": 5873, "\u2581aibu": 5874, "\u2581misaada": 5875, "\u2581lao": 5876, "\u2581ndivyo": 5877, "\u2581makampuni": 5878, "\u2581kulevya": 5879, "\u2581kiislamu": 5880, "rk": 5881, "\u2581sabu": 5882, "\u2581uzo": 5883, "\u2581kuamini": 5884, "\u2581gasar": 5885, "\u2581kale": 5886, "maanisha": 5887, "\u2581rayuwa": 5888, "\u258132": 5889, "\u2581inganta": 5890, "\u258133": 5891, "\u258120,": 5892, "\u0257a": 5893, "\u2581basu": 5894, "\u2581shafi": 5895, "\u2581hanya": 5896, "\u2581\u0199ara": 5897, "\u2581kukata": 5898, "\u2581\u0257au": 5899, "\u2581iri": 5900, "\u2581lau": 5901, "\u2581tayi": 5902, "\u2581ibrahim": 5903, "usu": 5904, "\u258115,": 5905, "\u2581bayani": 5906, "\u2581fina": 5907, "ctive": 5908, "\u258112,": 5909, "\u2581ziada": 5910, "\u2581kashi": 5911, "\u2581hoteli": 5912, "\u2581baka": 5913, "\u2581mani": 5914, "\u2581kuendesha": 5915, "\u2581makon": 5916, "mimi": 5917, "\u2581mace": 5918, "\u2581mitano": 5919, "\u2581wanasiasa": 5920, "500": 5921, "\u2581abdul": 5922, "mwe": 5923, "tsu": 5924, "\u2581salla": 5925, "\u2581rayuwar": 5926, "\u2581alitoa": 5927, "yawa": 5928, "\u2581lilikuwa": 5929, "\u2581qa": 5930, "\u2581usio": 5931, "\u2581riga": 5932, "\u2581yama": 5933, "-19": 5934, "\u2581kuchagua": 5935, "umu": 5936, "\u2581harakati": 5937, "\u2581miliyan": 5938, "\u2581mabaya": 5939, "\u2581sunan": 5940, "\u2581mfalme": 5941, "\u2581dauke": 5942, "\u2581korea": 5943, "\u2581batu": 5944, "\u2581bude": 5945, "yang": 5946, "\u2581shawara": 5947, "\u2581yabo": 5948, "\u258116,": 5949, "\u2581pengine": 5950, "Wa": 5951, "\u2581lamarin": 5952, "wata": 5953, "kunan": 5954, "\u2581\u0257aya": 5955, "\u258111,": 5956, "\u2581nafuu": 5957, "\u2581yiwu": 5958, "momi": 5959, "lk": 5960, "\u2581madrid": 5961, "\u2581mashi": 5962, "\u2581kusikia": 5963, "bab": 5964, "watu": 5965, "\u2581kuongezeka": 5966, "\u2581mg": 5967, "\u25818,": 5968, "\u2581jer": 5969, "\u2581kupinga": 5970, "\u2581wayar": 5971, "\u2581visa": 5972, "\u2581zanga": 5973, "\u2581syria": 5974, "\u2581wapiga": 5975, "\u2581sayar": 5976, "\u2581dauka": 5977, "\u2581kudai": 5978, "\u2581promo": 5979, "\u2581ngono": 5980, "\u2581ken": 5981, "weke": 5982, "\u2581shaida": 5983, "\u2581mr": 5984, "\u2581imara": 5985, "\u2581wadda": 5986, "\u2581gur": 5987, "\u2581humu": 5988, "\u2581jiya": 5989, "\u2581\u0257an": 5990, "\u2581japan": 5991, "tam": 5992, "hiyo": 5993, "\u2581darasa": 5994, "\u258113,": 5995, "onin": 5996, "\u2581arsenal": 5997, "\u2581tafi": 5998, "\u2581jinsia": 5999, "\u258114,": 6000, "\u2581majengo": 6001, "\u2581nairobi": 6002, "\u2581kotun": 6003, "wes": 6004, "\u2581baadae": 6005, "\u2581boko": 6006, "basi": 6007, "yun": 6008, "kuli": 6009, "\u2581urusi": 6010, "\u2581hela": 6011, "\u2581tashi": 6012, "\u2581haram": 6013, "\u2581paul": 6014, "\u2581raha": 6015, "\u2581manufaa": 6016, "\u2581kiya": 6017, "\u2581kamwe": 6018, "\u2581ujuzi": 6019, "\u2581kuelewa": 6020, "\u2581maye": 6021, "sor": 6022, "\u2581raba": 6023, "\u2581kona": 6024, "\u2581zata": 6025, "\u2581mwingi": 6026, "\u2581swahili": 6027, "\u2581biyar": 6028, "\u2581kujibu": 6029, "\u2581tafiya": 6030, "\u258117,": 6031, "\u2581majira": 6032, "\u2581kikundi": 6033, "\u2581kide": 6034, "\u2581\u0199ananan": 6035, "\u2581baridi": 6036, "\u2581misri": 6037, "\u2581abuja": 6038, "\u2581150": 6039, "\u2581Hii": 6040, "\u2581197": 6041, "\u2581rufe": 6042, "haba": 6043, "\u2581binciken": 6044, "\u2581milele": 6045, "\u2581hasira": 6046, "\u2581mlango": 6047, "kuma": 6048, "haya": 6049, "\u2581kutembelea": 6050, "\u2581adam": 6051, "\u2581mayar": 6052, "\u2581zane": 6053, "dada": 6054, "stani": 6055, "\u258121,": 6056, "\u2581caca": 6057, "\u2581litta": 6058, "ttle": 6059, "\u2581farin": 6060, "\u2581tunawa": 6061, "islam": 6062, "\u2581tsi": 6063, "\u2581aure": 6064, "\u2581instagram": 6065, "\u2581yaba": 6066, "\u2581kompyuta": 6067, "\u2581kullum": 6068, "\u2581bu\u0199atar": 6069, "\u2581kansu": 6070, "\u2581aika": 6071, "\u2581wedding": 6072, "mari": 6073, "\u2581sojojin": 6074, "\u2581mati": 6075, "\u2581Wakati": 6076, "manin": 6077, "\u2581daukar": 6078, "\u2581kammala": 6079, "\u2581mkononi": 6080, "\u2581naira": 6081, "\u2581kukua": 6082, "ummar": 6083, "\u25812000": 6084, "vation": 6085, "enga": 6086, "\u2581dhahabu": 6087, "\u2581karo": 6088, "\u2581karamar": 6089, "\u2581matakin": 6090, "\u2581kha": 6091, "\u2581jikin": 6092, "siku": 6093, "\u2581yun": 6094, "\u2581hudu": 6095, "\u2581zabi": 6096, "\u2581yamma": 6097, "\u2581Kuna": 6098, "\u2581uwepo": 6099, "\u2581wasanni": 6100, "\u2581kujali": 6101, "\u2581pata": 6102, "\u2581yada": 6103, "nime": 6104, "\u2581batun": 6105, "\u2581aikata": 6106, "\u2581karshen": 6107, "\u2581tura": 6108, "\u2581abinda": 6109, "usha": 6110, "onu": 6111, "\u2581tace": 6112, "\u2581cibi": 6113, "tle": 6114, "shan": 6115, "alay": 6116, "cine": 6117, "\u2581obama": 6118, "\u2581kingine": 6119, "dad": 6120, "\u2581david": 6121, "\u2581fita": 6122, "\u2581gudun": 6123, "\u2581rasa": 6124, "\u2581labari": 6125, "\u2581congo": 6126, "ciya": 6127, "\u2581dadi": 6128, "riwa": 6129, "\u2581peter": 6130, "cking": 6131, "\u2581kala": 6132, "\u2581vigumu": 6133, "\u2581haske": 6134, "\u2581abun": 6135, "\u2581saura": 6136, "ishaji": 6137, "\u2581wanne": 6138, "\u2581wanam": 6139, "\u2581burundi": 6140, "\u2581baza": 6141, "ancin": 6142, "\u2581jira": 6143, "pti": 6144, "\u2581kit": 6145, "\u2581dubu": 6146, "\u2581kaimu": 6147, "\u2581haramu": 6148, "\u2581juna": 6149, "\u2581yanayi": 6150, "\u2581sabuwar": 6151, "\u2581dogo": 6152, "\u2581yarda": 6153, "\u2581zinaweza": 6154, "\u2581matan": 6155, "\u2581koko": 6156, "\u2581\u0199asar": 6157, "isia": 6158, "\u2581kananan": 6159, "tance": 6160, "\u2581inaonekana": 6161, "baka": 6162, "\u2581kuongea": 6163, "aikata": 6164, "tina": 6165, "\u2581bayanai": 6166, "\u2581bala": 6167, "\u2581babbar": 6168, "\u2581rika": 6169, "dee": 6170, "\u2581goyon": 6171, "\u2581buga": 6172, "\u2581cigaba": 6173, "\u2581dokar": 6174, "\u2581bayi": 6175, "\u2581muke": 6176, "\u2581resu": 6177, "\u2581gama": 6178, "jina": 6179, "\u2581dari": 6180, "Ta": 6181, "mwana": 6182, "\u2581launi": 6183, "\u2581matar": 6184, "\u2581usawa": 6185, "\u2581alifanya": 6186, "\u2581matasa": 6187, "unan": 6188, "\u2581kasuwa": 6189, "\u2581yanaweza": 6190, "\u2581bayanan": 6191, "\u2581kotu": 6192, "\u2581yasa": 6193, "\u2581wuri": 6194, "dika": 6195, "kusan": 6196, "ushe": 6197, "\u2581thu": 6198, "tif": 6199, "\u2581tsaye": 6200, "\u2581gizo": 6201, "mungu": 6202, "\u2581sis": 6203, "\u2581george": 6204, "\u2581zamu": 6205, "\u2581biyan": 6206, "\u2581dollar": 6207, "\u2581london": 6208, "\u2581gana": 6209, "\u2581israel": 6210, "sawa": 6211, "\u2581kunywa": 6212, "\u2581mamaki": 6213, "iran": 6214, "\u2581dala": 6215, "\u2581rubuta": 6216, "\u2581muhammadu": 6217, "\u2581ministan": 6218, "\u2581dukan": 6219, "huda": 6220, "\u258144": 6221, "\u2581walla": 6222, "\u2581wastani": 6223, "\u2581misali": 6224, "\u2581mum": 6225, "\u2581harin": 6226, "\u2581shugabannin": 6227, "\u2581bashi": 6228, "\u2581nasarar": 6229, "\u2581cire": 6230, "\u2581ulimwenguni": 6231, "ansa": 6232, "\u2581taji": 6233, "\u2581youtube": 6234, "\u2581afirka": 6235, "\u2581atta": 6236, "\u2581tunanin": 6237, "\u2581shawarar": 6238, "bh": 6239, "\u2581hadin": 6240, "mawa": 6241, "\u2581komai": 6242, "\u2581popote": 6243, "\u2581inji": 6244, "\u2581england": 6245, "\u2581gyara": 6246, "\u2581liverpool": 6247, "\u2581bindiga": 6248, "kasa": 6249, "cewa": 6250, "\u2581musul": 6251, "\u2581tsan": 6252, "\u2581Watu": 6253, "vita": 6254, "\u2581dani": 6255, "\u2581karatu": 6256, "\u2581hak": 6257, "sions": 6258, "\u2581bidiyo": 6259, "\u2581kasuwanci": 6260, "\u2581kadan": 6261, "\u2581barcelona": 6262, "\u2581muni": 6263, "\u2581musi": 6264, "\u2581mteja": 6265, "\u2581fama": 6266, "sation": 6267, "\u2581yai": 6268, "dole": 6269, "\u2581tsara": 6270, "\u2581sandan": 6271, "\u2581lura": 6272, "\u2581yakin": 6273, "\u2581takribani": 6274, "\u2581biyo": 6275, "\u2581kelele": 6276, "\u2581arziki": 6277, "\u2581kinga": 6278, "sian": 6279, "\u2581jaridar": 6280, "\u2581bangaren": 6281, "sari": 6282, "\u2581kanta": 6283, "\u2581yaka": 6284, "\u2581jarida": 6285, "\u0253a": 6286, "\u2581york": 6287, "\u2581karne": 6288, "\u25812015.": 6289, "\u2581thi": 6290, "\u2581upi": 6291, "koki": 6292, "\u2581nn": 6293, "\u2581kiji": 6294, "\u2581tafsiri": 6295, "\u2581najua": 6296, "\u2581jini": 6297, "\u2581kidini": 6298, "\u2581amsa": 6299, "\u2581sauransu": 6300, "\u2581wacce": 6301, "\u2581ubunifu": 6302, "\u2581washington": 6303, "\u2581maganin": 6304, "\u2581fim": 6305, "\u2581muhimmanci": 6306, "aikatan": 6307, "\u2581kwai": 6308, "\u2581jela": 6309, "\u2581matsala": 6310, "\u2581canza": 6311, "\u2581ghana": 6312, "\u2581masaa": 6313, "\u2581uw": 6314, "\u2581maonyesho": 6315, "sses": 6316, "dou": 6317, "\u2581lami": 6318, "\u2581rasha": 6319, "\u2581zuba": 6320, "\u2581tsh": 6321, "\u2581wanan": 6322, "\u2581michael": 6323, "\u2581mataki": 6324, "\u2581fadin": 6325, "\u2581dacewa": 6326, "\u2581kash": 6327, "ifanya": 6328, "\u2581ilimi": 6329, "umz": 6330, "\u2581100%": 6331, "\u2581ukatili": 6332, "\u2581lashe": 6333, "\u2581kaba": 6334, "hivi": 6335, "huwa": 6336, "akari": 6337, "\u2581brazil": 6338, "\u2581qur": 6339, "sani": 6340, "iiii": 6341, "\u2581tsari": 6342, "\u2581emin": 6343, "\u2581launin": 6344, "\u2581tazama": 6345, "gic": 6346, "yam": 6347, "\u2581shafukan": 6348, "\u2581majadiliano": 6349, "\u2581zana": 6350, "stina": 6351, "\u2581sif": 6352, "tru": 6353, "mfu": 6354, "inin": 6355, "\u2581kutuma": 6356, "\u2581somalia": 6357, "\u2581dc": 6358, "\u2581kong": 6359, "\u2581goma": 6360, "\u2581bane": 6361, "\u2581sanarwa": 6362, "haka": 6363, "\u2581hare": 6364, "\u2581jerin": 6365, "\u2581uj": 6366, "\u2581rasu": 6367, "\u2581250": 6368, "\u2581dakatar": 6369, "hehe": 6370, "\u2581kud": 6371, "kasi": 6372, "\u2581afu": 6373, "addan": 6374, "\u2581fili": 6375, "\u2581chako": 6376, "muna": 6377, "\u2581lafiyar": 6378, "\u2581arabia": 6379, "\u2581wames": 6380, "\u2581asia": 6381, "qon": 6382, "\u2581kufahamu": 6383, "\u2581rea": 6384, "\u2581danda": 6385, "\u2581sas": 6386, "\u25812015,": 6387, "\u2581yaya": 6388, "\u2581anam": 6389, "\u2581chai": 6390, "\u2581shar": 6391, "nina": 6392, "\u2581abincin": 6393, "yane": 6394, "\u2581dokokin": 6395, "\u2581ahmed": 6396, "\u2581tsare": 6397, "\u2581covid": 6398, "\u2581samfurin": 6399, "\u2581fadar": 6400, "\u2581wanga": 6401, "wai": 6402, "\u2581nauyin": 6403, "\u2581asante": 6404, "\u25812019,": 6405, "\u2581saudi": 6406, "\u2581karan": 6407, "\u2581kimanin": 6408, "antu": 6409, "\u2581radhi": 6410, "\u2581fasaha": 6411, "\u2581maudhui": 6412, "ombea": 6413, "love": 6414, "chie": 6415, "\u2581tes": 6416, "\u25812017,": 6417, "\u2581kwanaki": 6418, "\u2581saman": 6419, "\u2581sauri": 6420, "\u2581kaso": 6421, "\u2581hoto": 6422, "utar": 6423, "\u2581196": 6424, "\u2581amerika": 6425, "\u2581kush": 6426, "\u2581dashi": 6427, "\u2581imes": 6428, "mum": 6429, "\u2581minti": 6430, "\u2581ofishin": 6431, "\u2581sace": 6432, "\u2581miya": 6433, "\u2581fadi": 6434, "hakuna": 6435, "kusanya": 6436, "\u25812018,": 6437, "\u2581zuri": 6438, "gos": 6439, "\u2581matukar": 6440, "kaka": 6441, "\u2581filin": 6442, "\u2581kake": 6443, "zaidi": 6444, "\u2581wuya": 6445, "\u2581alhaji": 6446, "\u2581jiragen": 6447, "\u25812018.": 6448, "wale": 6449, "\u2581baa": 6450, "\u2581taro": 6451, "\u2581mcha": 6452, "gum": 6453, "\u2581kiran": 6454, "\u2581sauki": 6455, "goni": 6456, "\u2581yiwa": 6457, "\u2581aiwatar": 6458, "mous": 6459, "......": 6460, "\u2581shahada": 6461, "\u2581cibiyar": 6462, "\u2581kasashe": 6463, "pris": 6464, "\u2581hoton": 6465, "\u2581shigo": 6466, "\u2581karfin": 6467, "\u2581ikon": 6468, "\u0199in": 6469, "\u2581tsaya": 6470, "gili": 6471, "\u25812016.": 6472, "\u2581gashi": 6473, "\u2581aje": 6474, "\u2581magani": 6475, "\u2581sarkin": 6476, "\u2581arzi": 6477, "\u2581samo": 6478, "\u2581karfe": 6479, "\u2581weka": 6480, "\u2581caption": 6481, "\u2581imam": 6482, "yesha": 6483, "\u2581sadarwa": 6484, "\u2581donald": 6485, "\u2581karfi": 6486, "\u2581yaye": 6487, "\u2581zom": 6488, "\u2581salon": 6489, "\u2581meya": 6490, "\u2581tasa": 6491, "\u2581daba": 6492, "\u2581uban": 6493, "\u2581fetur": 6494, "\u2581suma": 6495, "\u2581ethiopia": 6496, "\u2581libya": 6497, "gation": 6498, "imba": 6499, "kura": 6500, "\u2581bayanin": 6501, "eneza": 6502, "\u2581akwa": 6503, "\u2581inu": 6504, "\u258141": 6505, "\u2581kallon": 6506, "aikatar": 6507, "\u2581kuke": 6508, "\u2581gane": 6509, "\u2581hukuncin": 6510, "\u2581marasa": 6511, "\u2581ha\u0257a": 6512, "\u2581\u0199o": 6513, "\u2581turai": 6514, "dos": 6515, "\u2581fifa": 6516, "\u2581paris": 6517, "\u25811000": 6518, "\u2581zaku": 6519, "awar": 6520, "\u2581doka": 6521, "uko": 6522, "\u2581fatan": 6523, "urar": 6524, "\u25812019.": 6525, "\u2581ajiya": 6526, "lci": 6527, "utin": 6528, "\u2581nes": 6529, "onyeshwa": 6530, "\u2581akai": 6531, "\u2581mota": 6532, "\u2581sau\u0199i": 6533, "\u2581gudu": 6534, "\u2581faruwa": 6535, "\u2581bukata": 6536, "\u2581chanjo": 6537, "\u2581sojoji": 6538, "\u2581canada": 6539, "\u25812016,": 6540, "\u2581mutumin": 6541, "fta": 6542, "\u25812011.": 6543, "\u2581kuyi": 6544, "ayi": 6545, "\u2581damuwa": 6546, "\u2581zauna": 6547, "inai": 6548, "abo": 6549, "\u2581dasu": 6550, "\u2581addini": 6551, "\u2581shafa": 6552, "\u2581musulmi": 6553, "qal": 6554, "\u2581ine": 6555, "\u2581nis": 6556, "\u2581\u0257in": 6557, "\u2581hukumomin": 6558, "sio": 6559, "\u2581adawa": 6560, "hapa": 6561, "\u2581maki": 6562, "\u2581musulunci": 6563, "\u2581uham": 6564, "biya": 6565, "\u2581girman": 6566, "mata": 6567, "\u2581wuraren": 6568, "dur": 6569, "\u2581zambia": 6570, "\u2581takara": 6571, "\u2581magance": 6572, "\u2581tarihi": 6573, "gozi": 6574, "\u2581sadaka": 6575, "\u2581gaske": 6576, "\u2581bango": 6577, "yesu": 6578, "\u2581kiarabu": 6579, "hamb": 6580, "\u2581kifi": 6581, "\u2581akiba": 6582, "yina": 6583, "\u2581cuta": 6584, "\u2581ku\u0257i": 6585, "\u2581addin": 6586, "\u2581uzuri": 6587, "\u2581asalin": 6588, "\u2581kirki": 6589, "\u2581riba": 6590, "\u2581kisiwa": 6591, "kose": 6592, "\u2581sanin": 6593, "\u2581mary": 6594, "\u2581muku": 6595, "\u2581ayyuka": 6596, "\u2581addu": 6597, "\u2581juya": 6598, "\u2581dab": 6599, "ayin": 6600, "\u2581ukraine": 6601, "ubu": 6602, "iru": 6603, "\u2581australia": 6604, "esus": 6605, "yis": 6606, "fle": 6607, "haji": 6608, "\u2581robert": 6609, "\u2581amana": 6610, "yima": 6611, "hwa": 6612, "\u2581naka": 6613, "\u2581bamu": 6614, "\u2581dukkanin": 6615, "\u2581ciwon": 6616, "\u2581motar": 6617, "\u2581jima": 6618, "\u2581watanni": 6619, "jja": 6620, "\u2581tasiri": 6621, "\u2581zaba": 6622, "\u2581gizon": 6623, "\u2581tashin": 6624, "\u2581layi": 6625, "\u2581israeli": 6626, "\u2581dubai": 6627, "undu": 6628, "\u2581malam": 6629, "\u2581kuje": 6630, "\u2581ha\u0257in": 6631, "\u2581ea": 6632, "\u2581muswada": 6633, "\u2581kyawun": 6634, "\u2581sarrafa": 6635, "\u2581kadai": 6636, "\u2581zaune": 6637, "\u2581ilimin": 6638, "nga": 6639, "\u2581rike": 6640, "\u2581muh": 6641, "\u2581kawar": 6642, "\u2581sauya": 6643, "\u2581bani": 6644, "\u2581bam": 6645, "\u2581soke": 6646, "\u2581dadin": 6647, "kwesi": 6648, "\u2581hussein": 6649, "\u2581kut": 6650, "\u2581endelea": 6651, "\u2581\u0199ari": 6652, "mg": 6653, "\u2581shawar": 6654, "olewa": 6655, "\u25812:": 6656, "\u2581ciniki": 6657, "\u2581lambar": 6658, "\u2581mtumiaji": 6659, "\u2581zumunta": 6660, "gp": 6661, "\u2581dafa": 6662, "\u2581respe": 6663, "\u2581motsa": 6664, "\u2581auren": 6665, "\u2581itace": 6666, "\u2581gaza": 6667, "\u2581koda": 6668, "\u2581kas": 6669, "\u2581ajiye": 6670, "likuwa": 6671, "\u2581basa": 6672, "hia": 6673, "\u2581mashitaka": 6674, "\u2581dogara": 6675, "rej": 6676, "\u2581gaya": 6677, "\u2581addinin": 6678, "\u2581blogu": 6679, "wewe": 6680, "\u2581roma": 6681, "babu": 6682, "\u2581rawa": 6683, "\u2581tai": 6684, "\u2581maganar": 6685, "tas": 6686, "\u2581baiwa": 6687, "\u2581mutun": 6688, "\u2581fannin": 6689, "\u2581dabi": 6690, "\u2581hakkin": 6691, "\u2581tunda": 6692, "\u2581sabbin": 6693, "\u2581kasancewa": 6694, "taarifa": 6695, "\u2581kasuwar": 6696, "\u2581alhamis": 6697, "\u2581sabo": 6698, "ikiwa": 6699, "\u2581kisan": 6700, "\u2581tarihin": 6701, "mfi": 6702, "\u2581anfani": 6703, "\u2581nake": 6704, "\u2581koyar": 6705, "\u2581nisa": 6706, "\u2581jawo": 6707, "\u2581mene": 6708, "\u2581titi": 6709, "\u2581yaro": 6710, "\u25812021": 6711, "\u2581nata": 6712, "\u2581mola": 6713, "\u2581ky": 6714, "\u2581atiku": 6715, "\u2581zim": 6716, "\u2581bak": 6717, "rutu": 6718, "\u2581hotunan": 6719, "\u2581phy": 6720, "tum": 6721, "\u2581daji": 6722, "\u2581hanci": 6723, "\u2581wahala": 6724, "\u2581barin": 6725, "iwe": 6726, "\u2581kiwon": 6727, "\u25812013,": 6728, "\u2581koya": 6729, "\u2581emplo": 6730, "\u2581iraq": 6731, "samu": 6732, "\u2581abdullahi": 6733, "\u2581kibinafsi": 6734, "ipa": 6735, "chel": 6736, "\u2581tabbata": 6737, "\u2581kutazama": 6738, "\u2581dandalin": 6739, "\u0257e": 6740, "\u2581huta": 6741, "\u2581bakwai": 6742, "\u2581sauke": 6743, "sau": 6744, "adamu": 6745, "\u2581rubutu": 6746, "\u2581gwiwa": 6747, "\u2581sojin": 6748, "\u2581kune": 6749, "\u2581tafiyar": 6750, "\u2581shekarun": 6751, "\u2581sarki": 6752, "\u2581karar": 6753, "\u2581wasannin": 6754, "\u25812014.": 6755, "\u2581karbi": 6756, "\u2581kutegemea": 6757, "\u2581sanyi": 6758, "\u2581Kila": 6759, "\u2581bama": 6760, "\u25812014,": 6761, "\u2581nazarin": 6762, "yers": 6763, "\u2581lokuta": 6764, "\u2581daina": 6765, "\u2581asasi": 6766, "mwaka": 6767, "\u2581gag": 6768, "\u2581daniel": 6769, "\u2581messi": 6770, "\u2581mijin": 6771, "anyi": 6772, "\u2581baku": 6773, "\u2581kaza": 6774, "\u2581tuni": 6775, "\u2581mafu": 6776, "\u2581mutuwar": 6777, "\u2581cn": 6778, "llion": 6779, "\u2581kunya": 6780, "\u2581saki": 6781, "\u2581talata": 6782, "\u2581kulawa": 6783, "\u2581wane": 6784, "tuli": 6785, "\u2581chin": 6786, "\u2581kofin": 6787, "baadhi": 6788, "\u2581(19": 6789, "\u2581mc": 6790, "\u2581katsina": 6791, "\u2581haihuwa": 6792, "\u2581maida": 6793, "tare": 6794, "\u2581rahoto": 6795, "\u2581gargajiya": 6796, "\u2581shafe": 6797, "\u2581talaka": 6798, "\u2581makamai": 6799, "\u2581watsi": 6800, "\u2581tashar": 6801, "\u2581kwanan": 6802, "\u2581dun": 6803, "bic": 6804, "\u2581sune": 6805, "rations": 6806, "pra": 6807, "\u2581bawa": 6808, "jab": 6809, "hir": 6810, "\u2581yari": 6811, "\u2581kug": 6812, "\u2581kenan": 6813, "\u2581legas": 6814, "\u2581salo": 6815, "\u2581gona": 6816, "wannan": 6817, "mah": 6818, "\u2581taso": 6819, "\u2581khan": 6820, "\u2581taya": 6821, "\u2581rar": 6822, "\u2581janar": 6823, "\u2581uh": 6824, "ugu": 6825, "\u2581iska": 6826, "\u2581mt": 6827, "\u2581tamu": 6828, "\u2581wakil": 6829, "keyi": 6830, "\u2581mishi": 6831, "jis": 6832, "\u2581nahiyar": 6833, "\u2581kiraia": 6834, "\u2581hotuna": 6835, "\u2581cike": 6836, "\u25813:": 6837, "gam": 6838, "\u2581\u0199ungiyar": 6839, "kezi": 6840, "\u2581aliy": 6841, "yukan": 6842, "\u2581aliandika": 6843, "\u2581tata": 6844, "\u2581rabi": 6845, "\u2581shiri": 6846, "\u2581azo": 6847, "\u25812013.": 6848, "john": 6849, "\u2581\u0199arin": 6850, "cum": 6851, "\u2581jay": 6852, "\u2581yanka": 6853, "\u2581manta": 6854, "\u2581hijira": 6855, "antar": 6856, "\u2581gode": 6857, "\u2581washa": 6858, "mh": 6859, "\u2581yaran": 6860, "ffa": 6861, "\u2581za\u0253i": 6862, "\u2581karbar": 6863, "\u2581sauka": 6864, "umia": 6865, "\u2581inno": 6866, "\u2581phili": 6867, "\u2581littafin": 6868, "\u2581alamar": 6869, "fata": 6870, "rki": 6871, "\u2581kullun": 6872, "\u2581afghanistan": 6873, "cked": 6874, "\u2581mista": 6875, "kwenye": 6876, "addanci": 6877, "\u2581nayi": 6878, "kam": 6879, "cate": 6880, "\u2581umarnin": 6881, "ukwa": 6882, "\u2581baha": 6883, "\u2581laifi": 6884, "\u2581kyautar": 6885, "\u2581mandela": 6886, "\u2581kayi": 6887, "\u2581albarka": 6888, "\u2581jamus": 6889, "\u2581gon": 6890, "\u2581ainihin": 6891, "\u2581tunaomba": 6892, "\u2581qi": 6893, "\u2581jen": 6894, "\u2581kore": 6895, "\u2581taf": 6896, "\u2581matsayi": 6897, "\u2581shakka": 6898, "gea": 6899, "\u2581nesa": 6900, "\u2581nema": 6901, "\u2581rayukan": 6902, "\u2581pakistan": 6903, "aaa": 6904, "\u2581kuhama": 6905, "\u2581wajibi": 6906, "\u2581fice": 6907, "yah": 6908, "\u2581fari": 6909, "\u2581kasuwancin": 6910, "alim": 6911, "\u2581guinea": 6912, "\u2581\u0257aukar": 6913, "\u2581ink": 6914, "ttu": 6915, "zuru": 6916, "\u2581kub": 6917, "\u0199ar": 6918, "pun": 6919, "waye": 6920, "\u2581malaman": 6921, "\u2581kushi": 6922, "\u2581bayyanar": 6923, "\u2581haramta": 6924, "\u2581gudana": 6925, "\u2581pati": 6926, "lid": 6927, "bea": 6928, "\u2581uwar": 6929, "\u2581hukunci": 6930, "\u2581fuskar": 6931, "\u2581teku": 6932, "\u2581yawo": 6933, "\u2581tambaya": 6934, "bayan": 6935, "\u2581tau": 6936, "mr": 6937, "\u2581borno": 6938, "viti": 6939, "\u2581sako": 6940, "abu": 6941, "\u2581godiya": 6942, "\u2581nauyi": 6943, "\u2581anan": 6944, "Tan": 6945, "\u2581ceto": 6946, "\u2581gaggawa": 6947, "\u2581likita": 6948, "\u2581shuka": 6949, "\u2581tsira": 6950, "\u2581harshen": 6951, "muda": 6952, "\u2581hutu": 6953, "\u2581masara": 6954, "\u2581adalci": 6955, "\u2581kno": 6956, "tical": 6957, "tak": 6958, "\u2581hula": 6959, "\u25812.0": 6960, "\u2581faransa": 6961, "\u2581saya": 6962, "\u25812023": 6963, "\u2581soja": 6964, "\u2581chanya": 6965, "\u2581dogon": 6966, "\u2581nasu": 6967, "kosoa": 6968, "gard": 6969, "\u2581amincewa": 6970, "jabi": 6971, "\u2581ware": 6972, "\u2581lamba": 6973, "\u2581sirri": 6974, "\u2581mike": 6975, "\u2581karamin": 6976, "\u2581bidiyon": 6977, "mour": 6978, "\u2581america": 6979, "\u2581gurbin": 6980, "\u2581ciyar": 6981, "\u2581friday": 6982, "\u2581bankin": 6983, "\u2581kanka": 6984, "ndio": 6985, "\u2581kwashe": 6986, "\u2581sek": 6987, "\u25811990": 6988, "\u2581bangare": 6989, "\u2581igbo": 6990, "\u2581sakamako": 6991, "\u2581yaron": 6992, "\u2581takwas": 6993, "\u2581gabas": 6994, ".......": 6995, "\u2581ahsante": 6996, "dadi": 6997, "\u2581hira": 6998, "\u2581bayern": 6999, "\u2581saukar": 7000, "itaka": 7001, "dama": 7002, "enue": 7003, "\u2581aha": 7004, "\u2581[.": 7005, "\u0199e": 7006, "\u2581hasi": 7007, "idai": 7008, "\u2581lol": 7009, "\u2581jonathan": 7010, "waji": 7011, "ipata": 7012, "\u2581sayen": 7013, "\u2581ebola": 7014, "xin": 7015, "siya": 7016, "\u2581wanaharakati": 7017, "\u2581bauchi": 7018, "\u2581bello": 7019, "\u2581hul": 7020, "kish": 7021, "\u2581canja": 7022, "\u2581makaman": 7023, "\u2581boss": 7024, "\u2581burin": 7025, "\u2581haba": 7026, "katawa": 7027, "\u2581tantance": 7028, "\u2581belie": 7029, "\u2581hasken": 7030, "cef": 7031, "\u2581koyi": 7032, "\u2581christian": 7033, "\u2581ziyara": 7034, "gida": 7035, "\u2581martani": 7036, "\u2581makiya": 7037, "mental": 7038, "\u2581kishi": 7039, "\u2581rauni": 7040, "\u2581france": 7041, "\u2581ml": 7042, "\u2581mahmoud": 7043, "\u2581kunna": 7044, "mur": 7045, "\u2581ha\u0253aka": 7046, "\u2581fuska": 7047, "bata": 7048, "\u2581manifes": 7049, "\u2581gine": 7050, "\u2581tallafin": 7051, "daya": 7052, "\u2581iyaye": 7053, "\u2581\ud83d\udc49": 7054, "gidan": 7055, "\u2581dokoki": 7056, "saw": 7057, "bhan": 7058, "\u2581rubutun": 7059, "koma": 7060, "\u2581ha\u0199": 7061, "iyya": 7062, "\u2581tsor": 7063, "\u2581wakim": 7064, "\u2581nuni": 7065, "\u0257an": 7066, "\u2581mfa": 7067, "\u2581wayo": 7068, "wish": 7069, "reke": 7070, "yeye": 7071, "\u2581zamanin": 7072, "\u2581Hakuna": 7073, "ching": 7074, "\u2581alaka": 7075, "\u2581poa": 7076, "\u2581ginin": 7077, "\u2581haj": 7078, "\u2581dana": 7079, "\u2581tsanani": 7080, "\u2581qo": 7081, "\u25811999": 7082, "tine": 7083, "\u2581aci": 7084, "Ko": 7085, "hra": 7086, "\u2581rediyo": 7087, "\u2581tsarki": 7088, "\u2581christmas": 7089, "\u2581gado": 7090, "\u2581komawa": 7091, "\u2581Nili": 7092, "\u2581hahaha": 7093, "duk": 7094, "\u2581sunyi": 7095, "\u2581shehu": 7096, "\u2581tsin": 7097, "\u2581aisha": 7098, "\u2581kwara": 7099, "\u2581kudancin": 7100, "\u2581dage": 7101, "inab": 7102, "\u2581tsoron": 7103, "\u2581kudade": 7104, "jam": 7105, "\u2581fuskanta": 7106, "maan": 7107, "\u2581muslim": 7108, "\u2581boye": 7109, "zai": 7110, "insu": 7111, "\u2581wanka": 7112, "\u2581raya": 7113, "kumi": 7114, "sas": 7115, "\u2581maris": 7116, "\u2581ragu": 7117, "unaweza": 7118, "\u2581barazanar": 7119, "\u2581kallo": 7120, "tran": 7121, "\u2581\u0199arshe": 7122, "\u2581gefen": 7123, "\u2581namu": 7124, "\u2581duniyar": 7125, "\u2581dabbobi": 7126, "\u2581ganduje": 7127, "yancin": 7128, "\u2581dade": 7129, "\u2581tsoro": 7130, "\u2581alamun": 7131, "ashe": 7132, "\u2581malamin": 7133, "\u2581monday": 7134, "utu": 7135, "\u2581ku\u0257in": 7136, "\u2581farfesa": 7137, "amani": 7138, "\u2581yarinya": 7139, "huu": 7140, "\u2581hawan": 7141, "daga": 7142, "\u2581iy": 7143, "\u2581birthday": 7144, "bou": 7145, "\u2581!!!": 7146, "\u2581dutse": 7147, "\u2581mexico": 7148, "kaci": 7149, "\u2581russia": 7150, "\u2581angola": 7151, "\u2581hadu": 7152, "Ga": 7153, "\u2581gum": 7154, "\u2581bakwa": 7155, "\u2581rawar": 7156, "mz": 7157, "\u2581yaji": 7158, "\u2581tushen": 7159, "\u2581fitowa": 7160, "\u2581mutuwa": 7161, "\u2581ehe": 7162, "\u2581baban": 7163, "\u2581layin": 7164, "lc": 7165, "anian": 7166, "dah": 7167, "\u2581museveni": 7168, "\u2581\u0199ar\u0199ashin": 7169, "\u2581chinese": 7170, "\u2581sallah": 7171, "tention": 7172, "mra": 7173, "\u2581aura": 7174, "\u2581kaiwa": 7175, "\u2581littafi": 7176, "qun": 7177, "\u2581bible": 7178, "\u2581amazing": 7179, "\u2581coz": 7180, "\u2581gwada": 7181, "\u2581illa": 7182, "ths": 7183, "angi": 7184, "\u2581annabi": 7185, "\u2581kuny": 7186, "lol": 7187, "\u2581wancan": 7188, "\u2581unguwar": 7189, "\u2581dubi": 7190, "\u2581Yeye": 7191, "\"\"\"\"": 7192, "\u2581naij": 7193, "\u2581buku": 7194, "\u2581alheri": 7195, "\u2581rabu": 7196, "bbc": 7197, "bawa": 7198, "\u2581juyin": 7199, "alika": 7200, "\u2581tabbas": 7201, "wita": 7202, "allah": 7203, "\u2581johnson": 7204, "\u2581\u0199i": 7205, "\u2581kik": 7206, "guri": 7207, "cau": 7208, "wl": 7209, "\u2581funny": 7210, "yata": 7211, "\u2581mamaye": 7212, "\u2581naji": 7213, "\u2581rabin": 7214, "\u2581uje": 7215, "\u2581kwace": 7216, "turu": 7217, "\u2581tsohuwar": 7218, "unce": 7219, "?!": 7220, "yanci": 7221, "\u2581rarraba": 7222, "stu": 7223, "\u2581kasan": 7224, "bado": 7225, "gant": 7226, "\u2581yuni": 7227, "\u2581shanu": 7228, "\u2581aminu": 7229, "\u2581manufar": 7230, "\u2581manufa": 7231, "\u2581nishadi": 7232, "\u2581tunisia": 7233, "\u2581lada": 7234, "\u2581kiri": 7235, "yasa": 7236, "\u2581daren": 7237, "\u2581alamu": 7238, "\u2581alai": 7239, "\u2581girmama": 7240, "\u2581propaganda": 7241, "\u2581dora": 7242, "xal": 7243, "\u2581hiv": 7244, "\u2581korona": 7245, "\u2581sauraron": 7246, "\u2581lalle": 7247, "\u2581194": 7248, "\u2581wap": 7249, "\u2581american": 7250, "\u2581fuskanci": 7251, "\u2581wah": 7252, "\u2581mug": 7253, "\u2581dinga": 7254, "\u2581tilasta": 7255, "\u2581trend": 7256, "\u2581fira": 7257, "oza": 7258, "\u2581idanu": 7259, "\u2581ciwo": 7260, "\u2581inec": 7261, "iyar": 7262, "\u2581dina": 7263, "\u2581yanda": 7264, ".!": 7265, "\u2581talau": 7266, "\u2581soji": 7267, "\u2581fika": 7268, "\u2581niger": 7269, "\u2581gobe": 7270, "\u2581manya": 7271, "\u2581kalmar": 7272, "gee": 7273, "\u2581\u0199u": 7274, "\u2581wadansu": 7275, "\u2581tafar": 7276, "moc": 7277, "yansa": 7278, "\u2581hong": 7279, "ndo": 7280, "\u2581gasa": 7281, "\u2581taga": 7282, "\u2581yaa": 7283, "tsar": 7284, "leke": 7285, "\u2581mijinta": 7286, "\u2581kaji": 7287, "\u2581accu": 7288, "ibi": 7289, "\u2581karon": 7290, "gus": 7291, "xan": 7292, "\u2581kwantar": 7293, "roo": 7294, "\u2581spea": 7295, "bok": 7296, "wada": 7297, "\u2581zanz": 7298, "eee": 7299, "\u2581tasirin": 7300, "\u2581jim": 7301, "\u2581alhakin": 7302, "\u2581daura": 7303, "\u2581airport": 7304, "\u2581\u01b4an": 7305, "\u2581namiji": 7306, "\u2581saurin": 7307, "\u2581daukaka": 7308, "wanci": 7309, "\u2581akayi": 7310, "\u2581kwallo": 7311, "\u0199o": 7312, "\u2581mayu": 7313, "\u2581jordan": 7314, "\u2581ug": 7315, "\u2581anay": 7316, "\u2581kunne": 7317, "\u2581gudanarwa": 7318, "\u2581gefe": 7319, "lom": 7320, "\u2581yaushe": 7321, "\u2581bac": 7322, "\u2581manoma": 7323, "\u2581hukuma": 7324, "\u2581satar": 7325, "\u2581gawar": 7326, "antun": 7327, "\u2581hakuri": 7328, "\u2581bashin": 7329, "\u2581msh": 7330, "\u2581asiri": 7331, "cad": 7332, "\u2581gin": 7333, "cciyar": 7334, "\u2581Sisi": 7335, "\u2581kalli": 7336, "\u2581gaji": 7337, "\u2581kuskure": 7338, "\u2581\u0257auki": 7339, "isin": 7340, "\u2581kome": 7341, "\u2581nku": 7342, "\u2581tushe": 7343, "\u2581saturday": 7344, "\u2581talauci": 7345, "\u2581gwar": 7346, "\u2581clinton": 7347, "\u2581kuz": 7348, "pee": 7349, "\u2581daukan": 7350, "\u2581jiran": 7351, "\u2581ganawa": 7352, "giya": 7353, "\u2581daki": 7354, "\u2581kungiya": 7355, "\u2581riko": 7356, "\u2581izinin": 7357, "\u2581cen": 7358, "\u2581wakar": 7359, "adar": 7360, "\u2581jesus": 7361, "\u2581rushe": 7362, "\u2581barci": 7363, "shim": 7364, "\u2581muu": 7365, "yem": 7366, "\u2581yarinyar": 7367, "\u2581nuhu": 7368, "\u2581\u0199arshen": 7369, "\u2581iyali": 7370, "\u2581tsun": 7371, "masu": 7372, "\u2581kalla": 7373, "\u2581ingila": 7374, "kashi": 7375, "\u2581\u0199o\u0199arin": 7376, "\u2581annobar": 7377, "\u2581kids": 7378, "anua": 7379, "arani": 7380, "\u2581congress": 7381, "ungun": 7382, "wear": 7383, "\u2581kasha": 7384, "karibu": 7385, "\u2581lam": 7386, "\u2581lamari": 7387, "sir": 7388, "\u2581zaki": 7389, "yansu": 7390, "\u2581maho": 7391, "\u2581singapore": 7392, "\u2581democra": 7393, "\u2581bu\u0257e": 7394, "\u2581idon": 7395, "\u2581amar": 7396, "ipenda": 7397, "adam": 7398, "\u2581ij": 7399, "\u2581ae": 7400, "adun": 7401, "wayo": 7402, "\u2581\u0627": 7403, "\u2581fashe": 7404, "\u2581tallafi": 7405, "kanta": 7406, "Za": 7407, "\u2581sadau": 7408, "hc": 7409, "\u2581wash": 7410, "\u2581russian": 7411, "kitu": 7412, "\u2581jinin": 7413, "jah": 7414, "rul": 7415, "pea": 7416, "\u2581kk": 7417, "\u2581duhu": 7418, "\u2581bushe": 7419, "\u2581ushi": 7420, "hhhh": 7421, "\u2581mallaka": 7422, "sary": 7423, "\u2581tsakaninsu": 7424, "\u2581islam": 7425, "\u2581suyi": 7426, "\u2581shima": 7427, "\u2581guy": 7428, "\u2581haifi": 7429, "husiwa": 7430, "\u2581dee": 7431, "akai": 7432, "\u2581190": 7433, "\u2581gada": 7434, "lha": 7435, "\u2581anda": 7436, "pite": 7437, "\u2581adamawa": 7438, "ssy": 7439, "\u2581mafita": 7440, "sif": 7441, "\u2581abba": 7442, "akiwa": 7443, "ulia": 7444, "\u2581aiko": 7445, "\u2581harbe": 7446, "uya": 7447, "\u2581gor": 7448, "kid": 7449, "\u2581yas": 7450, "\u2581zaton": 7451, "\u2581kes": 7452, "phet": 7453, "\u2581lamu": 7454, "\u2581kibi": 7455, "\u2581manufofin": 7456, "\u2581aminci": 7457, "\u2581fa\u0257a": 7458, "\u2581thailand": 7459, "eze": 7460, "chal": 7461, "\u2581mam": 7462, "\u2581azumi": 7463, "\u2581fidda": 7464, "aan": 7465, "\u2581dubban": 7466, "riat": 7467, "\u2581tsananin": 7468, "\u2581french": 7469, "\u2581birni": 7470, "\u2581masar": 7471, "\u2581fitina": 7472, "\u2581insha": 7473, "\u2581zango": 7474, "\u2581lagos": 7475, "\u2581ifu": 7476, "\u2581dukiyar": 7477, "\u2581tuba": 7478, "tama": 7479, "\u2581eh": 7480, "\u2581cuba": 7481, "\u2581bob": 7482, "\u2581tada": 7483, "\u2581kaina": 7484, "\u2581lebo": 7485, "kistani": 7486, "\u2581lebanon": 7487, "\u2581muhimmancin": 7488, "amala": 7489, "\u2581citizen": 7490, "\u2581musulmai": 7491, "\u2581kulla": 7492, "\u2581quran": 7493, "\u2581kwance": 7494, "\u2581zunu": 7495, "\u2581ministry": 7496, "\u2581kishin": 7497, "nuwa": 7498, "\u2581malami": 7499, "yid": 7500, "\u2581weekend": 7501, "\u2581indian": 7502, "\u2581sanan": 7503, "uniya": 7504, "bly": 7505, "asu": 7506, "wasu": 7507, "\u2581maras": 7508, "\u2581ta\u0253a": 7509, "saf": 7510, "\u2581menene": 7511, "\u2581yakan": 7512, "\u2581agaji": 7513, "suwa": 7514, "nda": 7515, "hid": 7516, "sat": 7517, "\u2581mats": 7518, "\u2581zaid": 7519, "\u2581hukunta": 7520, "fis": 7521, "\u2581bambanci": 7522, "\u2581haraji": 7523, "\u2581canji": 7524, "\u2581kwas": 7525, "yh": 7526, "\u2581tsarka": 7527, "uwan": 7528, "brity": 7529, "\u2581Hiyo": 7530, "\u2581karuwa": 7531, "\u2581umarni": 7532, "kok": 7533, "yuwa": 7534, "uniyar": 7535, "\u2581tamkar": 7536, "\u2581lis": 7537, "stinian": 7538, "\u2581cibiyoyin": 7539, "\u2581marar": 7540, "\u2581spain": 7541, "inji": 7542, "\u2581kaga": 7543, "idar": 7544, "\u2581fagen": 7545, "abin": 7546, "\u2581sata": 7547, "nz": 7548, "\u2581tabar": 7549, "\u2581mafarki": 7550, "\u2581kh": 7551, "ewe": 7552, "\u2581salam": 7553, "\u2581ashirin": 7554, "asante": 7555, "\u2581mtan": 7556, "\u2581haihuwar": 7557, "rra": 7558, "\u2581bah": 7559, "lent": 7560, "\u2581fadawa": 7561, "lusi": 7562, "irin": 7563, "itumia": 7564, "yau": 7565, "lut": 7566, "nani": 7567, "lema": 7568, "\u2581islamic": 7569, "\u2581fassara": 7570, "\u2581masani": 7571, "\u2581balle": 7572, "\u0253i": 7573, "gare": 7574, "\u2581matuka": 7575, "\u2581makami": 7576, "\u2581alh": 7577, "\u2581sharhi": 7578, "\u2581agency": 7579, "\u2581shayi": 7580, "\u2581nikam": 7581, "\u2581yaja": 7582, "\u2581mugun": 7583, "\u2581wadai": 7584, "gypti": 7585, "kus": 7586, "\u2581isar": 7587, "\u2581bishi": 7588, "irun": 7589, "\u2581adu": 7590, "pire": 7591, "\u2581zuwan": 7592, "\u2581corruption": 7593, "\u2581ri\u0199e": 7594, "\u2581kwal": 7595, "\u2581anyi": 7596, "\u2581jik": 7597, "kada": 7598, "\u2581niyyar": 7599, "afisa": 7600, "\u2581farar": 7601, "\u2581wace": 7602, "\u2581fyade": 7603, "cting": 7604, "\u2581banza": 7605, "\u2581martaba": 7606, "\u2581naija": 7607, "\u2581halaye": 7608, "\u2581daka": 7609, "tah": 7610, "\u2581kwarai": 7611, "\u2581tsaka": 7612, "\u2581xu": 7613, "\u2581biki": 7614, "\u2581Instru": 7615, "biz": 7616, "\u2581dukiya": 7617, "\u2581kukan": 7618, "\u2581karen": 7619, "kas": 7620, "\u2581isan": 7621, "\u2581venezuela": 7622, "\u2581yunwa": 7623, "\u2581zamo": 7624, "\u2581germany": 7625, "\u2581kashin": 7626, "amari": 7627, "\u2581takaici": 7628, "kusa": 7629, "\u2581nunawa": 7630, "\u2581ish": 7631, "\u2581albarkatun": 7632, "\u2581bace": 7633, "mfa": 7634, "\u2581nigerian": 7635, "\u2581abada": 7636, "mud": 7637, "blogu": 7638, "\u2581mots": 7639, "dol": 7640, "happy": 7641, "\u2581.....": 7642, "mons": 7643, "\u2581jos": 7644, "\u2581tambaye": 7645, "\u2581kib": 7646, "\u2581mahanga": 7647, "\u2581karba": 7648, "yia": 7649, "unsu": 7650, "kamar": 7651, "\u2581budurwa": 7652, "sarki": 7653, "\u2581babba": 7654, "\u2581kulle": 7655, "yamu": 7656, "sata": 7657, "\u2581dauko": 7658, "ambayo": 7659, "hif": 7660, "asar": 7661, "karwa": 7662, "ansu": 7663, "iwa": 7664, "jima": 7665, "\u2581koyarwa": 7666, "\u2581fatar": 7667, "\u2581suppor": 7668, "\u2581tambayi": 7669, "\u2581lissafi": 7670, "\u2581maryam": 7671, "\u2581liberia": 7672, "\u2581lardin": 7673, "rink": 7674, "mf": 7675, "\u2581fansa": 7676, "\u2581hidima": 7677, "omu": 7678, "yiwa": 7679, "althy": 7680, "\u2581blogger": 7681, "\u2581indiya": 7682, "\u2581nc": 7683, "hida": 7684, "\u2581kauce": 7685, "\u2581miki": 7686, "dum": 7687, "hah": 7688, "yanta": 7689, "\u2581cigaban": 7690, "unty": 7691, "\u2581rashi": 7692, "\u2581rahama": 7693, "\u2581haiti": 7694, "\u2581bang": 7695, "\u2581dabba": 7696, "jj": 7697, "arl": 7698, "\u2581utam": 7699, "\u2581british": 7700, "\u2581kuf": 7701, "\u2581\u0199ungi": 7702, "uke": 7703, "xh": 7704, "\u2581???": 7705, "\u2581kuv": 7706, "\u2581cinye": 7707, "\u2581saida": 7708, "arri": 7709, "\u2581kwata": 7710, "imu": 7711, "\u2581samarwa": 7712, "\u2581tekun": 7713, "\u2581dangi": 7714, "\u2581fatima": 7715, "\u2581daure": 7716, "\u2581kaman": 7717, ".?": 7718, "\u2581dubawa": 7719, "stine": 7720, "\u2581bazai": 7721, "\u2581nemo": 7722, "\u2581fati": 7723, "rufai": 7724, "hea": 7725, "eza": 7726, "\u2581tashe": 7727, "\u2581bayin": 7728, "\u2581tarbi": 7729, "qur": 7730, "\u2581bura": 7731, "\u2581kuh": 7732, "mam": 7733, "\u2581shen": 7734, "lion": 7735, "\u2581hujja": 7736, "\u2581inna": 7737, "\u2581kwalliya": 7738, "\u2581tweet": 7739, "yim": 7740, "\u2581yakamata": 7741, "\u2581mae": 7742, "\u2581asirin": 7743, "witi": 7744, "\u2581yy": 7745, "\u2581shiru": 7746, "mwezi": 7747, "\u2581komi": 7748, "\u2581\u0257ali": 7749, "hiru": 7750, "ukan": 7751, "00,": 7752, "\u2581auri": 7753, "\u2581135": 7754, "zal": 7755, "\u2581kay": 7756, "\u2581oga": 7757, "\u2581innocent": 7758, "\u2581naje": 7759, "\u2581alaa": 7760, "gur": 7761, "\u2581biri": 7762, "\u2581sanusi": 7763, "\u2581bayarwa": 7764, "\u2581gurin": 7765, "\u2581wow": 7766, "\u2581zumun": 7767, "\u2581turawa": 7768, "kau": 7769, "\u2581leda": 7770, "\u2581sayyid": 7771, "\u2581aljan": 7772, "\u2581goyi": 7773, "\u2581taki": 7774, "\u2581192": 7775, "\u2581rokon": 7776, "\u2581faruwar": 7777, "\u2581wad": 7778, "\u2581imanin": 7779, "ambo": 7780, "\u2581\u0199are": 7781, "wara": 7782, "\u2581lahira": 7783, "awu": 7784, "\u2581yamu": 7785, "\u2581cairo": 7786, "\u2581sati": 7787, "\u2581za\u0253e": 7788, "\u2581ashe": 7789, "\u2581angel": 7790, "\u2581muyi": 7791, "\u2581daman": 7792, "jay": 7793, "\u2581bn": 7794, "\u2581experts": 7795, "\u2581da\u0257in": 7796, "\u2581eid": 7797, "\u2581bb": 7798, "idu": 7799, "tee": 7800, "\u2581jinjina": 7801, "\u2581iraki": 7802, "yak": 7803, "lz": 7804, "anishwa": 7805, "\u2581maci": 7806, "\u2581azur": 7807, "wah": 7808, "hhh": 7809, "\u2581akasa": 7810, "\u2581sunna": 7811, "raa": 7812, "isas": 7813, "jid": 7814, "gm": 7815, "ukuma": 7816, "\u2581nukiliya": 7817, "\u2581miye": 7818, "kishi": 7819, "wut": 7820, "wm": 7821, "\u2581muga": 7822, "\u2581alia": 7823, "aina": 7824, "yaya": 7825, "mutu": 7826, "\u2581biyun": 7827, "\u2581goge": 7828, "katan": 7829, "rated": 7830, "qan": 7831, "hman": 7832, "\u2581barca": 7833, "fam": 7834, "\u2581yakar": 7835, "\u2581nace": 7836, "\u2581tsufa": 7837, "anywa": 7838, "\u2581naki": 7839, "\u2581hajiya": 7840, "\u2581yak": 7841, "mentary": 7842, "jami": 7843, "\u2581takal": 7844, "pul": 7845, "kul": 7846, "\u2581basira": 7847, "\u2581hud": 7848, "\u2581uhu": 7849, "\u2581talatin": 7850, "\u2581yats": 7851, "hudawa": 7852, "\u2581initiative": 7853, "aswa": 7854, "shon": 7855, "ressed": 7856, "\u2581inka": 7857, "\u2581qar": 7858, "\u2581amsar": 7859, "\u2581dogaro": 7860, "\u2581wallahi": 7861, "\u2581ramadan": 7862, "sula": 7863, "mwo": 7864, "\u2581masoya": 7865, "\u2581fad": 7866, "tings": 7867, "\u2581gara": 7868, "\u2581sham": 7869, "\u2581sane": 7870, "anai": 7871, "vit": 7872, "\u2581abunda": 7873, "\u2581nabi": 7874, "\u2581zato": 7875, "\u2581maw": 7876, "\u2581mall": 7877, "\u2581masallaci": 7878, "erci": 7879, "jian": 7880, "dil": 7881, "\u2581tofa": 7882, "\u2581uch": 7883, "\u2581alkawari": 7884, "aah": 7885, "\u2581kanmu": 7886, "\u2581\u0199au": 7887, "\u2581gamu": 7888, "\u2581kwar": 7889, "karu": 7890, "kanci": 7891, "\u2581kauna": 7892, "\u2581turanci": 7893, "\u2581bakar": 7894, "\u2581karawa": 7895, "\u2581xan": 7896, "\u2581wanna": 7897, "\u2581kaunar": 7898, "gil": 7899, "\u2581nasir": 7900, "\u2581santa": 7901, "\u2581bacci": 7902, "akwai": 7903, "\u2581inama": 7904, "tend": 7905, "jib": 7906, "iye": 7907, "\u2581naga": 7908, "\u2581reporter": 7909, "gunan": 7910, "unsa": 7911, "yarta": 7912, "mmmm": 7913, "\u2581duki": 7914, "\u2581dad": 7915, "usan": 7916, "\u2581tah": 7917, "\u2581hamsin": 7918, "\u2581jib": 7919, "\u2581kuha": 7920, "hul": 7921, "\u2581tasu": 7922, "\u2581hk": 7923, "kamu": 7924, "\u2581kaz": 7925, "\u0257ai": 7926, "\u2581Wao": 7927, "\u2581waw": 7928, "chers": 7929, "\u2581sins": 7930, "babban": 7931, "\u2581rabon": 7932, "\u2581amarya": 7933, "rur": 7934, "nk": 7935, "\u2581itam": 7936, "\u2581mutunci": 7937, "\u2581kanada": 7938, "hadar": 7939, "dak": 7940, "\u2581Alikuwa": 7941, "\u2581zukatan": 7942, "\u2581peoples": 7943, "ukia": 7944, "\u2581azumin": 7945, "\u2581abar": 7946, "lahu": 7947, "inted": 7948, "Ky": 7949, "\u2581acikin": 7950, "\u2581toh": 7951, "idential": 7952, "anew": 7953, "\u2581dame": 7954, "\u2581sahun": 7955, "\u2581raka": 7956, "\u2581european": 7957, "kot": 7958, "ayo": 7959, "kasar": 7960, "\u2581wando": 7961, "kat": 7962, "higa": 7963, "aul": 7964, "ramu": 7965, "\u2581nashi": 7966, "fita": 7967, "\u2581uf": 7968, "\u2581lil": 7969, "north": 7970, "\u2581alum": 7971, "regist": 7972, "ariy": 7973, "lake": 7974, "uci": 7975, "\u2581ainihi": 7976, "\u2581yaso": 7977, "\u2581sauyi": 7978, "\u2581siyar": 7979, "itishwa": 7980, "inations": 7981, "\u2581tehran": 7982, "\u2581takai": 7983, "\u2581irinsu": 7984, "\u2581sunada": 7985, "\u2581kos": 7986, "\u2581wula": 7987, "\u2581khamenei": 7988, "osha": 7989, "\u2581irani": 7990, "\u2581allurar": 7991, "\u2581maman": 7992, "\u2581zalunci": 7993, "yadda": 7994, "\u2581raye": 7995, "hei": 7996, "\u2581yafe": 7997, "hee": 7998, "\u2581yaga": 7999, "\u2581fassarar": 8000, "alli": 8001, "\u2581jon": 8002, "zot": 8003, "\u2581dena": 8004, "adama": 8005, "reed": 8006, "\u2581hatta": 8007, "lh": 8008, "\u2581shak": 8009, "inya": 8010, "anity": 8011, "wk": 8012, "\u2581nima": 8013, "itment": 8014, "\u2581damun": 8015, "wato": 8016, "\u2581yunkuri": 8017, "\u2581mutuncin": 8018, "suna": 8019, "\u2581rabo": 8020, "alama": 8021, "\u2581makam": 8022, "\u2581egypt": 8023, "sad": 8024, "\u2581wa\u0199a": 8025, "\u2581dayan": 8026, "\u2581sa\u0199on": 8027, "\u2581gil": 8028, "wom": 8029, "adh": 8030, "\u2581yay": 8031, "\u2581tona": 8032, "cei": 8033, "jula": 8034, "\u2581girmamawa": 8035, "gay": 8036, "\u2581yardar": 8037, "hahaha": 8038, "\u2581yaje": 8039, "kand": 8040, "\u2581munanan": 8041, "kut": 8042, "antana": 8043, "idun": 8044, "insa": 8045, "ummomin": 8046, "reat": 8047, "\u2581\u0253a": 8048, "\u2581turo": 8049, "mist": 8050, "\u2581hakikanin": 8051, "\u2581dinta": 8052, "\u2581saukin": 8053, "\u2581tusa": 8054, "\u2581awar": 8055, "maw": 8056, "\u2581rahma": 8057, "\u2581christi": 8058, "\u2581mercy": 8059, "\u0199": 8060, "\u0257": 8061, "\u0253": 8062, "\ud83d\udc49": 8063}, "merges": [["\u2581professionnel", "le"], ["\u2581professionnel", "s"], ["\u2581communication", "s"], ["\u2581ngokuphelele", "yo"], ["_102481911520", "61"], ["\u2581Manufacturer", "s"], ["\u2581manufacturer", "s"], ["\u2581organisation", "s"], ["\u2581kubadilisha", "na"], ["\u2581Manufacture", "rs"], ["\u2581manufacture", "rs"], ["\u2581yarjejeniya", "r"], ["\u2581manufacture", "r"], ["\u2581commentaire", "s"], ["\u2581responsable", "s"], ["\u2581Manufacture", "r"], ["\u2581profession", "nelle"], ["\u2581pr\u00e9sidenti", "elle"], ["\u2581profession", "nels"], ["\u2581kushughuli", "kiwa"], ["\u2581kushughuli", "kia"], ["\u2581profession", "nel"], ["\u2581akishiriki", "ana"], ["\u2581waandamana", "ji"], ["\u2581ezahlukene", "yo"], ["\u2581abasebenzi", "si"], ["\u2581photograph", "er"], ["\u2581zinahitaji", "ka"], ["\u2581kasancewar", "ku"], ["\u2581shugabanni", "n"], ["\u2581shugabanci", "n"], ["\u25810732482690", "."], ["\u2581wazanzibar", "i"], ["\u2581photograph", "y"], ["\u2581entreprise", "s"], ["\u2581tattaunawa", "r"], ["\u2581muhimmanci", "n"], ["\u2581disponible", "s"], ["\u2581dangantaka", "r"], ["\u2581matsakaici", "n"], ["\u2581shawarwari", "n"], ["\u2581n\u00e9cessaire", "s"], ["\u258127.686670", "303345"], ["\u2581pr\u00e9sident", "ielle"], ["\u2581entertain", "ment"], ["\u2581kushiriki", "ana"], ["\u2581yarjejeni", "yar"], ["\u2581iwezekana", "vyo"], ["\u2581akiwasili", "sha"], ["\u2581makabidhi", "ano"], ["\u2581kutofauti", "ana"], ["\u2581kushiriki", "sha"], ["\u2581kutofauti", "sha"], ["\u2581ulimwengu", "ni"], ["\u2581hospitali", "ni"], ["\u2581kukabidhi", "wa"], ["\u2581inahitaji", "ka"], ["\u2581ngaphambi", "li"], ["\u2581yarjejeni", "ya"], ["dhalilisha", "ji"], ["\u2581gwamnatin", "sa"], ["\u2581kutambuli", "wa"], ["khethekile", "yo"], ["\u2581kuhifadhi", "wa"], ["\u2581unahitaji", "ka"], ["\u2581gwagwarma", "ya"], ["\u2581umsebenzi", "si"], ["\u2581kudhibiti", "wa"], ["thembekile", "yo"], ["\u2581abathengi", "sa"], ["\u2581makaranta", "r"], ["\u2581matsaloli", "n"], ["\u2581kayayyaki", "n"], ["\u2581kungiyoyi", "n"], ["\u2581kasancewa", "r"], ["\u2581kyakkyawa", "n"], ["\u2581kasuwanci", "n"], ["\u2581administr", "a"], ["\u2581jagoranci", "n"], ["\u2581kamfanoni", "n"], ["\u2581bangarori", "n"], ["\u2581pr\u00e9sident", "i"], ["\u2581makarantu", "n"], ["\u2581diff\u00e9rent", "s"], ["\u2581magunguna", "n"], ["\u2581kyakkyawa", "r"], ["\u2581masallaci", "n"], ["\u2581cututtuka", "n"], ["\u2581politique", "s"], ["\u2581rencontre", "s"], ["\u2581kuhifadhi", "a"], ["\u2581contempor", "a"], ["\u2581kwaikwayo", "n"], ["\u2581tambayoyi", "n"], ["\u2581militaire", "s"], ["\u2581programme", "s"], ["\u2581rahotanni", "n"], ["\u2581meilleure", "s"], ["\u2581aggregate", "d"], ["\u2581promotion", "s"], ["\u2581op\u00e9ration", "s"], ["..........", "."], ["\u2581participe", "r"], ["\u2581d\u00e9veloppe", "r"], ["\u2581105.9333", "2672119"], ["\u2581zinazowa", "kabili"], ["\u2581communic", "ations"], ["\u2581responsa", "bilit\u00e9"], ["\u2581fonction", "nement"], ["\u2581kubadili", "shana"], ["\u2581alichoki", "fanya"], ["\u2581organisa", "tions"], ["\u2581mchangan", "yiko"], ["\u2581ikakhulu", "kazi"], ["\u2581Binciken", "\u0199ara"], ["changanyi", "kiwa"], ["\u2581kubadili", "shwa"], ["\u2581photogra", "pher"], ["\u2581metropol", "itan"], ["\u2581manufact", "urer"], ["\u2581kusafiri", "shwa"], ["\u2581responsa", "bles"], ["\u2581kuwasili", "shwa"], ["\u2581gratuite", "ment"], ["\u2581interven", "tion"], ["\u2581kuhakiki", "sha"], ["\u2581ushiriki", "ano"], ["\u2581kukabili", "ana"], ["\u2581kubadili", "sha"], ["\u2581shugaban", "nin"], ["\u2581kuwasili", "sha"], ["\u2581kuwasili", "ana"], ["\u2581hospital", "ini"], ["\u2581kusafiri", "sha"], ["\u2581shugaban", "cin"], ["\u258107324826", "90."], ["\u2581kutekele", "zwa"], ["\u2581photogra", "phy"], ["\u2581manufact", "ure"], ["\u2581kukubali", "ana"], ["\u2581uthibiti", "sho"], ["\u2581kuchanga", "nya"], ["\u2581tattauna", "war"], ["\u2581muhimman", "cin"], ["\u2581responsa", "ble"], ["\u2581shaharar", "ren"], ["\u2581kujadili", "ana"], ["\u2581danganta", "kar"], ["\u2581shaharar", "run"], ["\u2581possibil", "it\u00e9"], ["\u2581kufurahi", "sha"], ["\u2581mashauri", "ano"], ["\u2581matsakai", "cin"], ["\u2581kushauri", "ana"], ["\u2581agricult", "ure"], ["\u2581littatta", "fai"], ["\u2581mahakama", "ni"], ["\u2581kutekele", "za"], ["shambulia", "ji"], ["\u2581madaraka", "ni"], ["\u2581barabara", "ni"], ["\u2581mahimman", "ci"], ["\u2581maambuki", "zi"], ["\u2581serikali", "ni"], ["tengeneza", "ji"], ["\u2581muhimman", "ci"], ["\u2581kumalizi", "ka"], ["\u2581tattauna", "wa"], ["\u2581kubadili", "ka"], ["\u2581danganta", "ka"], ["\u2581kuondoka", "na"], ["\u2581administ", "ra"], ["\u2581mitandao", "ni"], ["\u2581ngaphezu", "lu"], ["lungisele", "la"], ["\u2581nyingine", "zo"], ["\u2581kushinda", "na"], ["\u2581shafukan", "mu"], ["\u2581tsakanin", "su"], ["\u2581shugaban", "ci"], ["\u2581kwingine", "ko"], ["\u258107324826", "90"], ["\u2581republic", "an"], ["\u2581mwendele", "zo"], ["\u2581kukubali", "ka"], ["\u2581kusajili", "wa"], ["badilisha", "na"], ["lungisele", "lo"], ["\u2581magazeti", "ni"], ["\u2581kujadili", "wa"], ["andikisha", "ji"], ["sebenzisa", "na"], ["\u2581kusaidia", "na"], ["\u2581shugaban", "ni"], ["\u2581comprend", "re"], ["\u2581ushiriki", "na"], ["\u2581mahaifin", "sa"], ["\u2581immobili", "er"], ["\u2581kukabili", "wa"], ["\u2581meilleur", "es"], ["\u2581njengoku", "ba"], ["\u2581mashamba", "ni"], ["\u2581matsayin", "sa"], ["\u2581ndogondo", "go"], ["\u2581kukubali", "wa"], ["\u2581wanafiki", "ri"], ["\u2581matsakai", "ci"], ["\u2581industri", "es"], ["\u2581principa", "ux"], ["hlangothi", "ni"], [".........", ".."], ["phumelela", "yo"], ["\u2581particip", "er"], ["\u2581tabbatar", "wa"], ["\u2581d\u00e9velopp", "er"], ["\u2581hospital", "i"], ["\u2581gwamnati", "n"], ["\u2581majalisa", "r"], ["\u2581sakamako", "n"], ["\u2581wataalam", "u"], ["\u2581muhammad", "u"], ["\u2581takriban", "i"], ["\u2581kufikiri", "a"], ["\u2581hukumomi", "n"], ["\u2581reaction", "s"], ["\u2581particul", "i"], ["\u2581abdullah", "i"], ["\u2581fuskanta", "r"], ["\u2581kutegeme", "a"], ["\u2581ramadhan", "i"], ["\u2581kufurahi", "a"], ["\u2581Muhammad", "u"], ["\u2581Hospital", "i"], ["\u2581d\u00e9velopp", "e"], ["\u2581kitaalam", "u"], ["\u2581alkawari", "n"], ["\u2581barazana", "r"], ["\u2581gwamnoni", "n"], ["zerbaijan", "i"], ["\u2581r\u00e9sultat", "s"], ["\u2581opportun", "i"], ["tengeneze", "a"], ["\u2581kumalizi", "a"], ["\u2581Abdullah", "i"], ["\u2581tsammani", "n"], ["\u2581activit\u00e9", "s"], ["\u2581tanzania", "n"], ["\u2581probl\u00e8me", "s"], ["\u2581Supplier", "s"], ["\u2581derni\u00e8re", "s"], ["\u2581kwamfuta", "r"], ["\u2581meilleur", "s"], ["\u2581bambanci", "n"], ["\u2581particip", "a"], ["\u2581rigakafi", "n"], ["\u2581meilleur", "e"], ["\u2581Ramadhan", "i"], ["\u2581kalubale", "n"], ["\u2581tsofaffi", "n"], ["\u2581retrouve", "r"], [".........", "."], ["\u2581Tanzania", "n"], ["\u2581violence", "s"], ["\u2581pratique", "s"], ["\u2581kusafiri", "a"], ["\u2581download", "s"], ["\u2581batutuwa", "n"], ["\u2581premi\u00e8re", "s"], ["\u2581prochain", "e"], ["\u2581souhaite", "z"], ["\u2581candidat", "s"], ["\u2581commence", "r"], ["\u2581pr\u00e9sente", "r"], ["\u2581likitoci", "n"], ["\u2581bukukuwa", "n"], ["\u2581lalacewa", "r"], ["\u2581continue", "r"], ["\u2581wafanya", "biashara"], ["????????", "????????"], ["\u2581iliyowa", "silishwa"], ["\u2581kilicho", "fanyika"], ["\u2581kinacho", "endelea"], ["shintshi", "selwano"], ["\u2581communi", "cations"], ["\u2581itakayo", "fanyika"], ["\u2581kinacho", "fanyika"], ["\u2581kilicho", "andikwa"], ["\u2581walioji", "tokeza"], ["\u2581kinacho", "takiwa"], ["\u2581efanele", "kileyo"], ["\u2581organis", "ations"], ["\u2581usafiri", "shaji"], ["\u2581ubadili", "shaji"], ["\u2581labaran", "hausa"], ["\u2581kilicho", "tokea"], ["_1024819", "11520"], ["\u2581kuwasha", "wishi"], ["\u2581comment", "aires"], ["\u2581respons", "ables"], ["\u2581Comment", "aires"], ["\u2581diction", "aries"], ["\u2581utilisa", "teurs"], ["\u2581gratuit", "ement"], ["\u2581ukubuye", "kezwa"], ["\u2581wanavyo", "fanya"], ["\u2581connais", "sance"], ["\u2581kinacho", "tokea"], ["\u2581kuchele", "wesha"], ["\u2581walivyo", "fanya"], ["\u2581uwasili", "shaji"], ["\u2581wafanya", "kazi"], ["\u2581ulimwen", "guni"], ["\u2581televis", "heni"], ["\u2581hospita", "lini"], ["\u2581unyanya", "saji"], ["\u2581wanyama", "pori"], ["\u2581entrepr", "ises"], ["\u2581kilicho", "kuwa"], ["\u2581alipowa", "sili"], ["\u2581respons", "able"], ["\u2581zamanta", "kewa"], ["ministra", "tion"], ["\u2581kupende", "keza"], ["\u2581comment", "aire"], ["\u2581disponi", "bles"], ["\u2581uendele", "zaji"], ["\u2581kangaka", "nani"], ["\u2581kinacho", "itwa"], ["\u2581kushika", "mana"], ["\u2581Guizhou", "City"], ["\u2581guizhou", "city"], ["shughuli", "kiwa"], ["\u2581inganta", "ccen"], ["\u2581walivyo", "kuwa"], ["hlangabe", "zana"], ["\u2581waliopo", "teza"], ["\u2581kinacho", "weza"], ["\u2581automat", "ique"], ["\u2581nilivyo", "sema"], ["\u2581partena", "ires"], ["\u2581kuidhin", "isha"], ["\u2581gwagwar", "maya"], ["\u2581vilivyo", "kuwa"], ["\u2581shiriki", "sho"], ["\u2581mafundi", "sho"], ["\u2581mataima", "kin"], ["\u2581vingine", "vyo"], ["shughuli", "kia"], ["\u2581makaran", "tar"], ["\u2581kayayya", "kin"], ["\u2581millard", "ayo"], ["\u2581kasance", "war"], ["\u2581kyakkya", "wan"], ["\u2581kasuwan", "cin"], ["\u2581jagoran", "cin"], ["ishiriki", "ana"], ["\u2581democra", "tic"], ["\u2581mainten", "ant"], ["\u2581kukimbi", "lia"], ["\u2581makaran", "tun"], ["\u2581jamhuri", "yar"], ["\u2581entrepr", "ise"], ["\u2581kyakkya", "war"], ["\u2581masalla", "cin"], ["\u2581communi", "qu\u00e9"], ["\u2581publish", "ers"], ["\u2581kubaini", "sha"], ["\u2581concern", "ant"], ["\u2581republi", "can"], ["\u2581shiriki", "shi"], ["\u2581albarka", "tun"], ["\u2581kupindu", "kia"], ["\u2581okungen", "ani"], ["\u2581kwaikwa", "yon"], ["\u2581kupungu", "zwa"], ["\u2581travail", "ler"], ["\u2581program", "mes"], ["\u2581permett", "ant"], ["\u2581rahotan", "nin"], ["\u2581ngokwen", "ene"], ["\u2581Jamhuri", "yar"], ["\u2581permett", "ent"], ["\u2581jakadan", "cin"], ["\u2581Kyakkya", "wan"], ["\u2581jagoran", "tar"], ["\u2581t\u00e9l\u00e9vis", "ion"], ["\u2581diploma", "sia"], ["\u2581princip", "aux"], ["........", "..."], ["\u2581partici", "per"], ["\u2581tabbata", "rwa"], ["\u2581hospita", "li"], ["\u2581kupungu", "za"], ["\u2581uchungu", "zi"], ["tekeleza", "ji"], ["\u2581kupamba", "na"], ["\u2581ulimwen", "gu"], ["patikana", "ji"], ["\u2581kukusan", "ya"], ["\u2581hadhara", "ni"], ["\u2581mtandao", "ni"], ["\u2581kasuwan", "ci"], ["\u2581taimaka", "wa"], ["\u2581kilicho", "po"], ["\u2581austral", "ia"], ["\u2581rahotan", "ni"], ["\u2581kasance", "wa"], ["isebenzi", "sa"], ["\u2581mapumzi", "ko"], ["\u2581makaran", "ta"], ["fuatilia", "ji"], ["\u2581gargaji", "ya"], ["\u2581machafu", "ko"], ["\u2581kwaikwa", "yo"], ["\u2581Hospita", "li"], ["\u2581subscri", "be"], ["\u2581jagoran", "ci"], ["\u2581christi", "an"], ["\u2581inatoka", "na"], ["\u2581kuchele", "wa"], ["\u2581kukumbu", "ka"], ["\u2581kitanda", "ni"], ["\u2581kuamini", "ka"], ["\u2581majumba", "ni"], ["\u2581waamini", "fu"], ["\u2581kupende", "za"], ["\u2581alumini", "um"], ["\u2581kayayya", "ki"], ["chapisha", "ji"], ["\u2581mwamini", "fu"], ["\u2581gudanar", "wa"], ["\u2581aliyewa", "hi"], ["\u2581vilivyo", "po"], ["\u2581Indones", "ia"], ["\u2581mengine", "yo"], ["\u2581francis", "ko"], ["\u2581tsamman", "in"], ["\u2581tallafa", "wa"], ["\u2581institu", "te"], ["\u2581makaran", "tu"], ["bonakala", "yo"], ["\u2581tanzani", "an"], ["\u2581bandari", "ni"], ["\u2581viwanda", "ni"], ["\u2581certain", "es"], ["\u2581unafiki", "ri"], ["\u2581process", "us"], ["\u2581makusan", "yo"], ["\u2581inakuwa", "je"], ["\u2581kuajiri", "wa"], ["\u2581makaman", "da"], ["\u2581kufuata", "na"], ["\u2581itakuwa", "je"], ["\u2581tanzani", "te"], ["\u2581permett", "re"], ["\u2581partici", "pa"], ["\u2581tuntube", "mu"], ["hlabathi", "ni"], ["\u2581rayukan", "su"], ["\u2581Publish", "ed"], ["\u2581gwagwar", "ma"], ["\u2581wanadai", "wa"], ["\u2581rayuwar", "sa"], ["\u2581unatoka", "na"], ["\u2581gabatar", "wa"], ["anzishwa", "ji"], ["\u2581augusti", "ne"], ["shughuli", "ka"], ["\u2581sakanda", "re"], ["lalamika", "ji"], ["\u2581rayuwar", "su"], ["........", ".."], ["\u2581kufaidi", "ka"], ["isebenzi", "se"], ["\u2581Tanzani", "an"], ["chekesha", "ji"], ["\u2581masalla", "ci"], ["\u2581Convert", "er"], ["fundisha", "ji"], ["\u2581sarrafa", "wa"], ["\u2581msikiti", "ni"], ["\u2581kuepuka", "na"], ["\u2581kusindi", "ka"], ["bonakali", "so"], ["\u2581kyakkya", "wa"], ["\u2581wanacho", "ki"], ["\u2581msalaba", "ni"], ["\u2581waliowa", "hi"], ["\u2581christi", "na"], ["\u2581wakilin", "mu"], ["julikana", "yo"], ["\u2581perform", "an"], ["\u2581candida", "ts"], ["\u2581gidajen", "su"], ["\u2581ayyukan", "su"], ["\u2581\u00e9tudian", "ts"], ["\u2581pr\u00e9sent", "er"], ["\u2581kubaini", "ka"], ["\u2581kufunga", "na"], ["\u2581contact", "er"], ["\u2581bayyana", "wa"], ["\u2581mazoezi", "ni"], ["\u2581girmama", "wa"], ["\u2581continu", "er"], ["\u2581kizuizi", "ni"], ["\u2581ngokwen", "za"], ["\u2581tanzani", "a"], ["\u2581shugaba", "n"], ["\u2581Tanzani", "a"], ["\u2581matsayi", "n"], ["\u2581kungiya", "r"], ["\u2581tsakani", "n"], ["\u2581tabbata", "r"], ["\u2581kasashe", "n"], ["\u2581shekara", "r"], ["\u2581program", "u"], ["\u2581abubuwa", "n"], ["\u2581kamfani", "n"], ["\u2581mchanga", "n"], ["\u2581waislam", "u"], ["\u2581kiislam", "u"], ["\u2581matsala", "r"], ["\u2581bincike", "n"], ["\u2581Shugaba", "n"], ["\u2581kwamiti", "n"], ["therland", "s"], ["\u2581hanyoyi", "n"], ["\u2581minista", "n"], ["\u2581shawara", "r"], ["\u2581Comment", "s"], ["\u2581bangare", "n"], ["\u2581shafuka", "n"], ["\u2581cikakke", "n"], ["\u2581alhamis", "i"], ["\u2581farashi", "n"], ["\u2581yawanci", "n"], ["\u2581hankali", "n"], ["zanzibar", "i"], ["\u2581hukunci", "n"], ["\u2581abdalla", "h"], ["\u2581mtaalam", "u"], ["\u2581kukimbi", "a"], ["\u2581taimako", "n"], ["\u2581kupungu", "a"], ["\u2581princip", "a"], ["\u2581hususan", "i"], ["\u2581produit", "s"], ["\u2581sanarwa", "r"], ["\u2581respons", "a"], ["\u2581shekaru", "n"], ["\u2581wasanni", "n"], ["\u2581yankuna", "n"], ["\u2581takarda", "r"], ["\u2581littafi", "n"], ["\u2581kwayoyi", "n"], ["\u2581bayyana", "r"], ["\u2581shahara", "r"], ["\u2581yunkuri", "n"], ["\u2581tarayya", "r"], ["\u2581kwanaki", "n"], ["\u2581kilomet", "a"], ["\u2581tsakiya", "r"], ["\u2581fahimta", "r"], ["ristophe", "r"], ["mentaire", "s"], ["\u2581tallafi", "n"], ["\u2581asibiti", "n"], ["\u2581intanet", "i"], ["\u2581vitamin", "i"], ["\u2581Februar", "i"], ["\u2581gaskiya", "r"], ["\u2581mallaka", "r"], ["\u2581individ", "u"], ["\u2581personn", "a"], ["\u2581sauraro", "n"], ["\u2581america", "n"], ["\u2581archive", "s"], ["\u2581inganci", "n"], ["\u2581Product", "s"], ["\u2581wengine", "o"], ["\u2581\u0253angare", "n"], ["\u2581nouveau", "x"], ["\u2581yarinya", "r"], ["\u2581chambre", "s"], ["\u2581\u0199asashe", "n"], ["\u2581\u0199wayoyi", "n"], ["\u2581tambaya", "r"], ["\u2581semaine", "s"], ["\u2581municip", "a"], ["\u2581mshanga", "o"], ["\u2581tsanani", "n"], ["\u2581bindiga", "r"], ["\u2581african", "s"], ["\u2581maganga", "n"], ["\u2581haihuwa", "r"], ["\u2581amazing", "a"], ["\u2581utilise", "r"], ["\u2581siffofi", "n"], ["\u2581dernier", "s"], ["\u2581albashi", "n"], ["\u2581command", "e"], ["\u2581univers", "i"], ["........", "."], ["\u2581nigeria", "n"], ["\u2581shugaba", "r"], ["\u2581uendele", "e"], ["\u2581gilashi", "n"], ["\u2581couleur", "s"], ["\u2581conseil", "s"], ["\u2581kalmomi", "n"], ["\u2581sadarwa", "r"], ["\u2581Alhamis", "i"], ["\u2581tsamman", "i"], ["\u2581Nigeria", "n"], ["chakachu", "a"], ["\u2581dattawa", "n"], ["\u2581Program", "u"], ["\u2581william", "s"], ["\u2581gratuit", "e"], ["\u2581bindiga", "n"], ["\u2581organis", "a"], ["\u2581matashi", "n"], ["\u2581hatsari", "n"], ["\u2581candida", "t"], ["\u2581ibrahim", "u"], ["\u2581halitta", "r"], ["\u2581demande", "r"], ["\u2581lissafi", "n"], ["\u2581gargadi", "n"], ["\u2581million", "i"], ["\u2581kwarewa", "r"], ["\u2581concern", "e"], ["\u2581famille", "s"], ["position", "s"], ["\u2581steroid", "s"], ["\u2581hankula", "n"], ["\u2581dabbobi", "n"], ["\u2581sarauta", "r"], ["\u2581fassara", "r"], ["\u2581princes", "s"], ["\u2581partage", "r"], ["\u2581minista", "r"], ["\u2581kuskure", "n"], ["\u2581kimiyya", "r"], ["\u2581mutunci", "n"], ["\u2581britann", "i"], ["\u2581propose", "r"], ["\u2581Tarayya", "r"], ["\u2581laifuka", "n"], ["\u2581annonce", "s"], ["\u2581zilizo", "chukuliwa"], ["\u2581mfanya", "biashara"], ["\u2581zinazo", "wakabili"], ["\u2581crypto", "currency"], ["\u2581zinazo", "patikana"], ["\u2581zilizo", "patikana"], ["\u2581zinazo", "hitajika"], ["diamond", "platnumz"], ["\u2581zinazo", "zalishwa"], ["\u2581yaliyo", "patikana"], ["\u2581yaliyo", "fanyika"], ["\u2581zinazo", "endelea"], ["\u2581yanayo", "endelea"], ["\u2581zinazo", "husiana"], ["\u2581lililo", "fanyika"], ["\u2581utakao", "fanyika"], ["\u2581zilizo", "fanyika"], ["listjsw", "ishlist"], ["\u2581Lookup", "Country"], ["\u2581lookup", "country"], ["\u2581yanayo", "husiana"], ["\u2581inavyo", "onekana"], ["\u2581yanayo", "fanyika"], ["\u2581amakha", "simende"], ["\u2581zilizo", "endelea"], ["\u2581zinapo", "chipuka"], ["\u2581r\u00e9guli", "\u00e8rement"], ["\u2581alicho", "kifanya"], ["setshen", "ziselwa"], ["\u2581organi", "sations"], ["\u2581zilizo", "tolewa"], ["\u2581zinazo", "tolewa"], ["\u2581yaliyo", "tolewa"], ["\u2581zinazo", "fanywa"], ["\u2581yaliyo", "fanywa"], ["\u2581kulazi", "mishwa"], ["\u2581kusima", "mishwa"], ["\u2581yanayo", "tokana"], ["\u2581commen", "taires"], ["\u2581uhamas", "ishaji"], ["\u2581zinazo", "husika"], ["\u2581yanayo", "fanywa"], ["\u2581techno", "logies"], ["\u2581zinazo", "tumika"], ["\u2581inayom", "kabili"], ["\u2581ukanda", "mizaji"], ["zenzaka", "lelayo"], ["\u2581consom", "mation"], ["thakaze", "lisayo"], ["\u2581zinazo", "tokana"], ["\u2581utilis", "ateurs"], ["\u2581mwanan", "yamala"], ["\u2581Watsup", "Africa"], ["environ", "nement"], ["\u2581yanayo", "tolewa"], ["\u2581waliji", "tokeza"], ["\u2581wameji", "tokeza"], ["\u2581zilizo", "tumika"], ["\u2581miundo", "mbinu"], ["setshen", "ziswa"], ["\u2581corona", "virus"], ["\u2581ngapha", "kathi"], ["\u2581intern", "ation"], ["\u2581manufa", "cture"], ["\u2581kukuba", "liana"], ["\u2581virutu", "bisho"], ["\u2581yaliyo", "tokea"], ["\u2581kuchan", "ganya"], ["\u2581christ", "opher"], ["\u2581ngapha", "mbili"], ["\u2581kusima", "misha"], ["\u2581kulazi", "misha"], ["\u2581respon", "sable"], ["\u2581kuhara", "kisha"], ["\u2581Afghan", "istan"], ["\u2581corpor", "ation"], ["\u2581commen", "taire"], ["\u2581direct", "ement"], ["\u2581dispon", "ibles"], ["\u2581zilizo", "wekwa"], ["\u2581kufund", "ishia"], ["\u2581dangan", "takar"], ["\u2581yanayo", "tokea"], ["\u2581ibhayi", "bheli"], ["\u2581nakuba", "liana"], ["\u2581alivyo", "fanya"], ["\u2581appart", "ement"], ["\u2581lililo", "tokea"], ["\u2581zilizo", "pigwa"], ["\u2581Instru", "ments"], ["\u2581ibhayi", "bhile"], ["\u2581Wonder", "share"], ["\u2581ufundi", "shaji"], ["\u2581kukari", "bisha"], ["\u2581gwamna", "tocin"], ["\u2581shawar", "warin"], ["\u2581kupand", "ishwa"], ["\u2581Corona", "virus"], ["install", "ation"], ["\u2581wameji", "panga"], ["\u2581n\u00e9cess", "aires"], ["\u2581ezinga", "phezu"], ["\u2581kufund", "ishwa"], ["\u2581mwenye", "kiti"], ["\u2581changa", "moto"], ["\u2581mashin", "dano"], ["\u2581Mwenye", "kiti"], ["\u2581madara", "kani"], ["\u2581maanda", "mano"], ["\u2581maanda", "lizi"], ["\u2581serika", "lini"], ["tengene", "zaji"], ["\u2581kibina", "damu"], ["\u2581kumali", "zika"], ["\u2581zilizo", "pita"], ["tertain", "ment"], ["\u2581ilivyo", "kuwa"], ["lingani", "shwa"], ["thibiti", "shwa"], ["\u2581kufund", "isha"], ["\u2581mfanya", "kazi"], ["\u2581kuondo", "lewa"], ["\u2581mshika", "mano"], ["\u2581kusisi", "tiza"], ["\u2581dangan", "taka"], ["jwayele", "kile"], ["\u2581zilizo", "kuwa"], ["\u2581kungen", "zeka"], ["\u2581yaliyo", "kuwa"], ["\u2581kuondo", "kana"], ["\u2581lililo", "kuwa"], ["\u2581waanda", "mana"], ["\u2581kukose", "kana"], ["\u2581mwanda", "mizi"], ["\u2581kamfan", "onin"], ["\u2581walipo", "kuwa"], ["\u2581kulala", "mika"], ["\u2581mkanda", "rasi"], ["\u2581propag", "anda"], ["shiriki", "shwa"], ["\u2581kufiki", "shwa"], ["\u2581alivyo", "kuwa"], ["\u2581diff\u00e9r", "ents"], ["\u2581kuwaka", "mata"], ["\u2581alimwa", "mbia"], ["\u2581msonga", "mano"], ["\u2581magung", "unan"], ["\u2581yanayo", "husu"], ["\u2581waanda", "mizi"], ["\u2581\u00e9conom", "ique"], ["\u2581shawar", "wari"], ["\u2581rapide", "ment"], ["\u2581masara", "utar"], ["\u2581kutoku", "wepo"], ["\u2581wanapo", "kuwa"], ["\u2581sanadi", "yyar"], ["\u2581zinazo", "weza"], ["\u2581alivyo", "sema"], ["\u2581politi", "ques"], ["9072189", "3311"], ["\u2581yanayo", "weza"], ["\u2581nilipo", "kuwa"], ["\u2581ezinda", "weni"], ["\u2581rencon", "tres"], ["\u2581invest", "ment"], ["\u2581concer", "nant"], ["\u2581yaweze", "kana"], ["\u2581kukuba", "lika"], ["\u2581mgawan", "yiko"], ["\u2581simple", "ment"], ["\u2581kubona", "kala"], ["\u2581kupand", "isha"], ["\u2581wanaki", "jiji"], ["\u2581change", "ment"], ["sebenzi", "sana"], ["\u2581ukukhu", "luma"], ["\u2581yaliyo", "pita"], ["hlangan", "weni"], ["\u2581exp\u00e9ri", "ence"], ["\u2581wapiga", "kura"], ["\u2581walipo", "fika"], ["\u2581kulazi", "mika"], ["\u2581waliyo", "kuwa"], ["\u2581zinazo", "husu"], ["\u2581linapo", "kuja"], ["\u2581hawaja", "wahi"], ["\u2581lililo", "pita"], ["\u2581facile", "ment"], ["hlangan", "iswa"], ["\u2581maombo", "lezo"], ["hlangan", "yela"], ["\u2581initia", "tive"], ["\u2581permet", "tant"], ["\u2581yasiyo", "kuwa"], ["qhathan", "iswa"], ["\u2581eningi", "zimu"], ["thibiti", "shia"], ["\u2581kurudi", "shwa"], ["\u2581alicho", "kuwa"], ["\u2581walipo", "teza"], ["\u2581meille", "ures"], ["\u2581njengo", "kuba"], ["lingani", "selo"], ["\u2581kukata", "liwa"], ["\u2581unavyo", "weza"], ["\u2581hawaku", "weza"], ["\u2581aggreg", "ated"], ["\u2581unique", "ment"], ["\u2581kuwata", "mbua"], ["\u2581kujisa", "jili"], ["\u2581permet", "tent"], ["\u2581kuingi", "liwa"], ["\u2581misuko", "suko"], ["\u2581kukuba", "liwa"], ["\u2581finale", "ment"], ["\u2581yaliyo", "jiri"], ["\u2581wanaku", "tana"], ["\u2581kungen", "ziwa"], ["\u2581zisizo", "kuwa"], ["\u2581indust", "ries"], ["\u2581daidai", "tuwa"], ["\u2581diplom", "asia"], [".......", "...."], ["\u2581d\u00e9velo", "pper"], ["\u2581totale", "ment"], ["\u2581gwamna", "tin"], ["\u2581majali", "sar"], ["\u2581kuanga", "lia"], ["\u2581sakama", "kon"], ["thibiti", "sha"], ["\u2581kusima", "mia"], ["\u2581kuchan", "gia"], ["shiriki", "sha"], ["\u2581mwanan", "chi"], ["\u2581kuzali", "sha"], ["tengene", "zwa"], ["lingani", "sha"], ["\u2581ngapha", "mbi"], ["\u2581kusisi", "mua"], ["\u2581majari", "bio"], ["\u2581wanaoi", "shi"], ["\u2581kufiki", "ria"], ["shiriki", "ana"], ["\u2581austra", "lia"], ["dhihiri", "sha"], ["\u2581wanatu", "mia"], ["\u2581kuingi", "lia"], ["\u2581partic", "uli"], ["\u2581matara", "jio"], ["\u2581kibina", "fsi"], ["tofauti", "ana"], ["\u2581kuwapa", "tia"], ["hlangan", "isa"], ["\u2581fuskan", "tar"], ["\u2581kurudi", "sha"], ["\u2581kupele", "kwa"], ["\u2581kufiki", "sha"], ["sherehe", "kea"], ["\u2581d\u00e9velo", "ppe"], ["tambuli", "sha"], ["\u2581waende", "lee"], ["\u2581sakata", "ren"], ["\u2581Gwamna", "tin"], ["\u2581market", "ing"], ["\u2581christ", "ian"], ["\u2581alkawa", "rin"], ["\u2581christ", "mas"], ["\u2581whatsa", "app"], ["\u2581baraza", "nar"], ["\u2581kwakwa", "lwa"], ["\u2581argent", "ina"], ["shiriki", "ano"], ["\u2581magung", "una"], ["\u2581kupele", "kea"], ["\u2581kamfan", "oni"], ["\u2581kupiga", "nia"], ["hadhari", "sha"], ["\u2581opport", "uni"], ["\u2581gudana", "rwa"], ["\u2581diff\u00e9r", "ent"], ["\u2581autori", "t\u00e9s"], ["tengene", "zea"], ["\u2581kumali", "zia"], ["\u2581kuingi", "zwa"], ["\u2581instit", "ute"], ["\u2581activi", "t\u00e9s"], ["\u2581makara", "ntu"], ["\u2581mwenza", "ngu"], ["\u2581marudi", "ano"], ["\u2581proces", "sus"], ["\u2581kwamfu", "tar"], ["\u2581waende", "sha"], ["hlangan", "ise"], ["\u2581scient", "ifi"], ["\u2581commer", "cia"], ["\u2581meille", "urs"], ["\u2581makama", "shi"], ["\u2581proxim", "it\u00e9"], ["\u2581makama", "nda"], ["\u2581hatari", "shi"], ["\u2581permet", "tre"], ["\u2581partic", "ipa"], ["\u2581mhlawu", "mbe"], ["\u2581corpor", "ate"], ["\u2581rigaka", "fin"], ["\u2581aliyoi", "toa"], ["\u2581sanadi", "yar"], ["\u2581minist", "\u00e8re"], ["\u2581Market", "ing"], ["\u2581meille", "ure"], ["\u2581gabata", "rwa"], ["\u2581waanda", "aji"], ["\u2581august", "ine"], ["\u2581waliou", "awa"], ["changan", "ywa"], ["\u2581kaluba", "len"], ["\u2581majali", "sun"], ["\u2581retrou", "ver"], [".......", "..."], ["\u2581tamthi", "lia"], ["\u2581wataka", "vyo"], ["\u2581abbasi", "yya"], ["\u2581mhlawu", "mbi"], ["\u2581pr\u00e9c\u00e9d", "ent"], ["\u2581kuzidi", "sha"], ["\u2581gagaru", "min"], ["\u2581corres", "pon"], ["\u2581fourni", "sse"], ["mbarati", "sha"], ["\u2581aliyes", "ema"], ["hlangan", "iso"], ["\u2581analyt", "ics"], ["\u2581christ", "ina"], ["\u2581procha", "ine"], ["\u2581perfor", "man"], ["hlakani", "pha"], ["\u2581sinada", "ran"], ["\u2581candid", "ats"], ["\u2581commen", "cer"], ["\u2581wanali", "pwa"], ["\u2581cat\u00e9go", "rie"], ["\u2581cinika", "yya"], ["\u2581pr\u00e9sen", "ter"], ["tofauti", "sha"], ["\u2581bayyan", "awa"], ["\u2581utapia", "mlo"], ["\u2581kukati", "sha"], ["\u2581lalace", "war"], ["\u2581contin", "uer"], ["\u2581wametu", "mia"], ["\u2581advent", "ure"], ["\u2581hakika", "nin"], ["\u2581serika", "li"], ["\u2581kutoka", "na"], ["\u2581nyingi", "ne"], ["\u2581wanawa", "ke"], ["\u2581mwingi", "ne"], ["\u2581nyumba", "ni"], ["\u2581mwenye", "we"], ["\u2581karibu", "ni"], ["\u2581miongo", "ni"], ["tengene", "za"], ["\u2581wanawe", "za"], ["zalisha", "ji"], ["\u2581wilaya", "ni"], ["sebenzi", "sa"], ["\u2581mwenye", "zi"], ["\u2581gwamna", "ti"], ["\u2581njengo", "ba"], ["\u2581kuondo", "ka"], ["\u2581kumali", "za"], ["\u2581kukuba", "li"], ["\u2581katika", "ti"], ["\u2581mwisho", "ni"], ["\u2581hatima", "ye"], ["\u2581kukuta", "na"], ["\u2581vijiji", "ni"], ["\u2581kamfan", "in"], ["\u2581madara", "ka"], ["\u2581wataku", "wa"], ["\u2581haraka", "ti"], ["\u2581zilizo", "po"], ["tangaza", "ji"], ["\u2581majali", "wa"], ["\u2581kuzali", "wa"], ["\u2581uwanja", "ni"], ["\u2581review", "ed"], ["\u2581kutoku", "wa"], ["\u2581Mwenye", "zi"], ["\u2581mwenza", "ke"], ["endesha", "ji"], ["\u2581mbingu", "ni"], ["lingani", "so"], ["\u2581endele", "vu"], ["\u2581minist", "an"], ["\u2581phambi", "li"], ["\u2581shawar", "ar"], ["changan", "ya"], ["\u2581whatsa", "pp"], ["\u2581mzungu", "ko"], ["\u2581zitaka", "zo"], ["\u2581sauran", "su"], ["\u2581kupele", "ka"], ["\u2581mwongo", "zo"], ["\u2581ufungu", "zi"], ["\u2581kumali", "zi"], ["\u2581mwanzo", "ni"], ["\u2581mikono", "ni"], ["sebenzi", "si"], ["landela", "yo"], ["\u2581kusima", "ma"], ["\u2581yataka", "yo"], ["\u2581kuingi", "za"], ["\u2581kufiki", "ri"], ["\u2581kijiji", "ni"], ["\u2581mwenye", "ji"], ["\u2581kuacha", "na"], ["\u2581kuwata", "ka"], ["\u2581dukkan", "in"], ["\u2581daidai", "ta"], ["shitaki", "wa"], ["\u2581madara", "sa"], ["\u2581princi", "pa"], ["kabidhi", "wa"], ["\u2581hawaku", "wa"], ["\u2581kichwa", "ni"], ["\u2581kuunga", "na"], ["\u2581wanaku", "wa"], ["\u2581respon", "sa"], ["\u2581watawa", "la"], ["hifadhi", "wa"], ["\u2581majali", "sa"], ["\u2581njengo", "ko"], ["\u2581kanisa", "ni"], ["\u2581visiwa", "ni"], ["\u2581nimeku", "wa"], ["\u2581gereza", "ni"], ["\u2581bahari", "ni"], ["\u2581mummun", "an"], ["\u2581mataji", "ri"], ["\u2581hawata", "ki"], ["hudhuri", "wa"], ["\u2581walipa", "ta"], ["\u2581kupiga", "na"], ["Austral", "ia"], ["\u2581litaka", "lo"], ["\u2581bayyan", "ar"], ["\u2581ezimbi", "li"], ["\u2581lililo", "po"], ["\u2581majira", "ni"], ["\u2581wataka", "po"], ["\u2581amince", "wa"], ["\u2581madawa", "ti"], ["\u2581repr\u00e9s", "en"], ["\u2581yaliyo", "po"], ["\u2581izinga", "ne"], ["\u2581chumba", "ni"], ["\u2581sakama", "ko"], ["\u2581jukwaa", "ni"], ["\u2581victor", "ia"], ["tengene", "zo"], ["\u2581yaliyo", "mo"], ["hambisa", "na"], ["\u2581vendre", "di"], ["\u2581kwakho", "na"], ["\u2581mwanan", "gu"], ["\u2581maisha", "ni"], ["changan", "yi"], ["\u2581kilele", "ni"], ["tambuli", "wa"], ["\u2581fuskan", "ta"], ["changia", "ji"], ["\u2581kutawa", "la"], ["lungile", "yo"], ["\u2581ukudla", "la"], ["sebenzi", "ni"], ["\u2581hatari", "ni"], ["\u2581kwatan", "ta"], ["\u2581darasa", "ni"], ["tambuli", "ka"], ["\u2581pourra", "it"], ["sebenzi", "se"], ["\u2581jangwa", "ni"], ["\u2581person", "na"], ["\u2581nitaku", "wa"], ["\u2581kyauta", "ta"], ["\u2581kisiwa", "ni"], ["fadhili", "wa"], ["\u2581indoda", "na"], ["\u2581ngokun", "ga"], ["\u2581fuskan", "ci"], ["\u2581kishin", "do"], ["\u2581mapoke", "zi"], ["\u2581Kutoka", "na"], ["\u2581miongo", "zo"], ["shiriki", "na"], ["\u2581kwezin", "ye"], ["\u2581archiv", "es"], ["\u2581ezinga", "ma"], ["\u2581baraza", "na"], ["\u2581mariga", "yi"], ["\u2581kwamfu", "ta"], ["\u2581madara", "ja"], ["\u2581mwenza", "ko"], ["\u2581anadai", "wa"], ["\u2581mwisho", "we"], ["\u2581Review", "ed"], ["\u2581sansan", "in"], ["\u2581makiya", "ya"], ["\u2581wanaku", "ja"], ["\u2581kinywa", "ji"], ["\u2581contr\u00f4", "le"], ["\u2581afungu", "ka"], ["\u2581uchafu", "zi"], ["fanyika", "zi"], ["thandwa", "yo"], ["\u2581shinka", "fa"], ["\u2581alicho", "ki"], ["yarisha", "ji"], ["\u2581kuhoji", "wa"], ["\u2581mummun", "ar"], ["\u2581shamba", "ni"], ["\u2581makini", "ka"], ["\u2581minist", "ry"], ["khulume", "la"], ["\u2581africa", "ns"], ["\u2581ezimbi", "ni"], ["dhibiti", "wa"], ["\u2581talaka", "wa"], ["\u2581wakiwa", "mo"], ["\u2581utilis", "er"], ["lingani", "sa"], ["\u2581kufiki", "wa"], ["thibiti", "ka"], ["dhamini", "wa"], ["\u2581ukumbi", "ni"], ["\u2581wasafi", "ri"], ["\u2581muongo", "zo"], ["\u2581Fran\u00e7a", "is"], ["dingeka", "yo"], ["\u2581Njengo", "ba"], ["lindele", "ke"], ["\u2581nitori", "na"], ["\u2581samani", "ya"], ["\u2581mabara", "za"], ["\u2581kuchan", "ga"], [".......", ".."], ["\u2581dangan", "ta"], ["\u2581kunoku", "ba"], ["\u2581kuachi", "wa"], ["\u2581hatuta", "ki"], ["\u2581shaida", "wa"], ["\u2581ngezin", "ye"], ["\u2581zilizo", "ko"], ["\u2581ngezin", "to"], ["\u2581kaluba", "le"], ["\u2581uvunji", "fu"], ["\u2581rigaka", "fi"], ["\u2581kuwapa", "ta"], ["\u2581compag", "ni"], ["\u2581cancan", "ta"], ["\u2581mahara", "ge"], ["\u2581njenge", "si"], ["\u2581shanga", "zi"], ["tafsiri", "wa"], ["qhubeka", "yo"], ["\u2581r\u00e9pond", "re"], ["\u2581kwarar", "ru"], ["\u2581kuenda", "na"], ["\u2581ukuhla", "la"], ["sebenza", "yo"], ["\u2581cancan", "ci"], ["\u2581tsabta", "ce"], ["\u2581shafin", "ka"], ["\u2581safari", "ni"], ["\u2581lalace", "wa"], ["\u2581hakuwa", "hi"], ["\u2581wataku", "ja"], ["\u2581victim", "es"], ["\u2581kwakun", "ye"], ["\u2581mlango", "ni"], ["\u2581identi", "fi"], ["\u2581kwalli", "ya"], ["\u2581shafin", "sa"], ["\u2581hayaku", "wa"], ["\u2581haliku", "wa"], ["\u2581ezinda", "wo"], ["\u2581mwanga", "za"], ["\u2581r\u00e9alis", "er"], ["\u2581yanayo", "wa"], ["\u2581majari", "bu"], ["mboleza", "ji"], ["\u2581niliwa", "hi"], ["phelele", "yo"], ["\u2581hoteli", "ni"], ["\u2581mgawan", "yo"], ["\u2581laraba", "wa"], ["\u2581organi", "sa"], ["\u2581wanaku", "la"], ["\u2581kuliko", "ni"], ["\u2581shawar", "ci"], ["\u2581procha", "in"], ["\u2581anacho", "ki"], ["\u2581manyan", "ya"], ["\u2581nasara", "wa"], ["dhihiri", "ka"], ["hakathi", "ni"], ["\u2581wasema", "ji"], ["\u2581njengo", "ku"], ["\u2581zinazo", "wa"], ["\u2581nukili", "ya"], ["\u2581candid", "at"], ["\u2581kwalla", "ye"], ["\u2581kugawa", "na"], ["\u2581megawa", "ti"], ["\u2581wizara", "ni"], ["\u2581daidai", "to"], ["\u2581tutaka", "po"], ["\u2581Malays", "ia"], ["\u2581demand", "er"], ["\u2581joseph", "at"], ["\u2581kulipi", "za"], ["sebenze", "la"], ["\u2581upanga", "ji"], ["hlukene", "yo"], ["ishanga", "za"], ["\u2581alkawa", "ri"], ["\u2581ngokwe", "zi"], ["hlukile", "yo"], ["\u2581profit", "er"], ["\u2581injini", "ya"], ["\u2581tunaku", "wa"], ["\u2581dialog", "ue"], ["\u2581ukukhu", "la"], ["\u2581shingo", "ni"], ["\u2581activi", "t\u00e9"], ["\u2581concer", "ne"], ["\u2581report", "er"], ["\u2581hawaja", "li"], ["\u2581kwezin", "to"], ["\u2581Wilaya", "ni"], ["\u2581tsafta", "ce"], ["\u2581hannun", "sa"], ["\u2581haziku", "wa"], ["\u2581amaphu", "zu"], ["\u2581affair", "es"], ["\u2581ingawa", "je"], ["\u2581pharma", "cy"], ["\u2581wanako", "sa"], ["\u2581europe", "an"], ["\u2581abanga", "ma"], ["\u2581kungen", "xa"], ["\u2581yakini", "fu"], ["\u2581hatuku", "wa"], ["\u2581unacho", "ki"], ["\u2581Design", "er"], ["\u2581kukati", "ka"], ["\u2581commen", "c\u00e9"], ["\u2581Nitori", "na"], ["tengene", "ze"], ["\u2581kutani", "ko"], ["\u2581angali", "zo"], ["\u2581prince", "ss"], ["\u2581amakha", "ya"], ["\u2581minist", "ar"], ["\u2581kaburi", "ni"], ["\u2581retrou", "ve"], ["\u2581esithi", "le"], ["\u2581kuwata", "ja"], ["\u2581nimeku", "ja"], ["wezesha", "ji"], ["xhomeke", "ke"], ["\u2581badili", "ko"], ["\u2581shigar", "wa"], ["\u2581lilian", "za"], ["\u2581propos", "er"], ["\u2581mkondo", "ni"], ["\u2581wanazi", "di"], ["\u2581object", "if"], ["\u2581yaliyo", "ko"], ["mbarati", "ka"], ["\u2581mgongo", "ni"], ["\u2581wanaku", "fa"], ["\u2581tegeme", "zi"], ["\u2581compl\u00e8", "te"], ["\u2581chenye", "we"], ["\u2581r\u00e9fugi", "\u00e9s"], ["\u2581lokaci", "n"], ["\u2581bayyan", "a"], ["\u2581hukuma", "r"], ["\u2581kuingi", "a"], ["\u2581kufiki", "a"], ["\u2581gudana", "r"], ["mokrasi", "a"], ["\u2581maalum", "u"], ["\u2581gwamna", "n"], ["\u2581mutane", "n"], ["hudhuri", "a"], ["\u2581bukata", "r"], ["\u2581kuondo", "a"], ["\u2581ayyuka", "n"], ["\u2581yanayi", "n"], ["\u2581kokari", "n"], ["\u2581gabata", "r"], ["\u2581kasuwa", "n"], ["\u2581kupand", "a"], ["\u2581labari", "n"], ["\u2581profes", "a"], ["\u2581takara", "r"], ["\u2581hadith", "i"], ["\u2581wataka", "o"], ["\u2581mashin", "e"], ["\u2581commun", "i"], ["\u2581rayuwa", "r"], ["\u2581makara", "n"], ["\u2581shawar", "a"], ["\u2581lamari", "n"], ["\u2581jagora", "n"], ["\u2581africa", "n"], ["\u2581angali", "a"], ["\u2581manufa", "a"], ["\u2581bu\u0199ata", "r"], ["\u2581sojoji", "n"], ["\u2581karama", "r"], ["\u2581mataki", "n"], ["\u2581karshe", "n"], ["\u2581kanana", "n"], ["\u2581bayana", "i"], ["\u2581bayana", "n"], ["\u2581rahoto", "n"], ["\u2581dalili", "n"], ["\u2581nasara", "r"], ["\u2581tunani", "n"], ["\u2581kwallo", "n"], ["\u2581jarida", "r"], ["\u2581magani", "n"], ["hlangan", "o"], ["\u2581somali", "a"], ["\u2581uislam", "u"], ["\u2581dangan", "e"], ["\u2581lafiya", "r"], ["\u2581mataka", "n"], ["\u2581abinci", "n"], ["\u2581dokoki", "n"], ["\u2581gidaje", "n"], ["anzibar", "i"], ["\u2581amerik", "a"], ["\u2581rikici", "n"], ["\u2581matuka", "r"], ["\u2581am\u00e9ric", "a"], ["\u2581kudade", "n"], ["\u2581bayani", "n"], ["\u2581kukata", "a"], ["\u2581arziki", "n"], ["\u2581wurare", "n"], ["\u2581instit", "u"], ["\u2581allaah", "u"], ["\u2581israel", "i"], ["mocrati", "c"], ["\u2581karatu", "n"], ["\u2581endele", "a"], ["\u2581addini", "n"], ["\u2581magana", "r"], ["\u2581kasuwa", "r"], ["\u2581jihohi", "n"], ["\u2581tarihi", "n"], ["\u2581hotuna", "n"], ["\u2581hamsin", "i"], ["\u2581tafiya", "r"], ["\u2581nazari", "n"], ["\u2581mutuwa", "r"], ["\u2581makama", "i"], ["\u2581Profes", "a"], ["\u2581diplom", "a"], ["\u2581kulipi", "a"], ["\u2581dispon", "i"], ["\u2581siyasa", "r"], ["\u2581umarni", "n"], ["\u2581kyauta", "r"], ["\u2581wapata", "o"], ["\u2581ziyara", "r"], ["\u2581ainihi", "n"], ["\u2581jawabi", "n"], ["\u2581Januar", "i"], ["\u2581trouve", "r"], ["\u2581rayuka", "n"], ["\u2581njenge", "n"], ["\u2581wakili", "n"], ["\u2581matasa", "n"], ["\u2581harshe", "n"], ["feature", "d"], ["\u2581bidiyo", "n"], ["\u2581mataka", "i"], ["hlangan", "a"], ["\u2581makama", "n"], ["\u2581ngokwe", "n"], ["\u2581fasaha", "r"], ["\u2581amfani", "n"], ["ristian", "o"], ["\u2581candid", "a"], ["\u2581misali", "n"], ["\u2581rubutu", "n"], ["\u2581zamani", "n"], ["rusalem", "u"], ["\u2581kuachi", "a"], ["shugaba", "n"], ["\u2581yiwuwa", "r"], ["\u2581duniya", "r"], ["\u2581malami", "n"], ["\u2581invest", "i"], ["\u2581Israel", "i"], ["\u2581zuciya", "r"], ["\u2581commun", "a"], ["\u2581daraja", "r"], ["\u2581Commun", "i"], ["\u2581motoci", "n"], ["\u2581manufa", "r"], ["\u2581Gwamna", "n"], ["\u2581waishi", "o"], ["\u2581kurudi", "a"], ["\u2581walion", "a"], ["\u2581marudi", "o"], ["\u2581Somali", "a"], ["\u2581kwanta", "r"], ["\u2581tasiri", "n"], ["\u2581halaye", "n"], ["\u2581yaduwa", "r"], ["\u2581altern", "a"], ["\u2581rukuni", "n"], ["\u2581\u0199arshe", "n"], ["\u2581destin", "a"], ["\u2581\u0199o\u0199ari", "n"], ["\u2581consid", "\u00e9"], ["\u2581associ", "a"], ["\u2581kabila", "r"], ["\u2581russia", "n"], ["\u2581hadari", "n"], ["\u2581mwenzi", "o"], ["\u2581prison", "s"], ["\u2581shaida", "r"], ["\u2581effect", "u"], ["\u2581njengo", "m"], ["\u2581dukiya", "r"], ["\u2581Daraja", "r"], ["\u2581psychi", "c"], ["\u2581access", "o"], ["\u2581academ", "y"], ["donesia", "n"], ["\u2581majiya", "r"], ["\u2581zarafi", "n"], ["\u2581akwati", "n"], ["\u2581likita", "n"], ["\u2581projet", "s"], ["\u2581kuishi", "a"], ["\u2581Instit", "u"], ["\u2581groupe", "s"], ["\u2581origin", "a"], ["\u2581tuhuma", "r"], ["\u2581domain", "e"], ["\u2581afungu", "a"], ["\u2581Jehova", "h"], ["\u2581mesure", "s"], ["\u2581kubaki", "a"], ["\u2581dispos", "i"], ["\u2581besoin", "s"], ["\u2581german", "y"], ["\u2581sufuri", "a"], ["\u2581choisi", "r"], ["picture", "s"], ["\u2581labaru", "n"], ["\u2581poursu", "i"], ["\u2581propri", "\u00e9"], ["\u2581alkali", "n"], ["\u2581utilis", "a"], ["\u2581Allaah", "u"], ["\u2581kuwait", "a"], ["\u2581lokuta", "n"], ["matique", "s"], ["\u2581+08:00", "\""], ["\u2581cigaba", "n"], ["\u2581compan", "i"], ["\u2581masani", "n"], ["ssement", "s"], ["\u2581jariri", "n"], ["\u2581karuwa", "r"], ["\u2581tufafi", "n"], ["\u2581kamfan", "i"], ["\u2581contra", "t"], ["\u2581minist", "a"], ["\u2581mwenzi", "e"], ["\u2581change", "r"], ["\u2581accomp", "a"], ["\u2581tawaye", "n"], ["\u2581satisf", "a"], ["\u2581joueur", "s"], ["\u2581conten", "u"], ["\u2581ciniki", "n"], ["\u2581mwenza", "o"], ["\u2581pr\u00e9cis", "\u00e9"], ["\u2581suivan", "t"], ["\u2581compet", "i"], ["\u2581jehova", "h"], ["\u2581makali", "o"], ["\u2581fasali", "n"], ["\u2581petite", "s"], ["\u2581faruwa", "r"], ["\u2581r\u00e9seau", "x"], ["\u2581hatima", "e"], ["\u2581laisse", "r"], ["\u2581tikiti", "n"], ["\u2581expert", "s"], ["\u2581master", "s"], ["\u2581proche", "s"], ["\u2581offici", "a"], ["\u2581libert", "\u00e9"], ["registr", "e"], ["\u2581tattoo", "s"], ["\u2581ganawa", "r"], ["\u2581sanadi", "n"], ["\u2581bayyan", "e"], ["\u2581ufungu", "o"], ["\u2581caract", "\u00e9"], ["\u2581mamaki", "n"], ["\u2581Basket", "s"], ["ongolia", "n"], ["\u2581demand", "\u00e9"], ["\u2581public", "s"], ["\u2581celebr", "a"], ["\u2581wahala", "r"], ["\u2581mahara", "n"], ["\u2581sanata", "n"], ["\u2581wasika", "r"], ["\u2581italia", "n"], ["logique", "s"], ["\u2581samwel", "i"], ["\u2581calcul", "a"], ["\u2581tegeme", "o"], ["\u2581risque", "s"], ["\u2581d\u00e9tail", "s"], ["\u2581mod\u00e8le", "s"], ["\u2581people", "s"], ["\u2581sallam", "a"], ["\u2581marque", "s"], ["\u2581jacket", "s"], ["\u2581utilis", "e"], ["ination", "s"], ["\u2581confor", "t"], ["\u2581bashir", "u"], ["romania", "n"], ["\u2581kusali", "a"], ["mission", "s"], ["\u2581raison", "s"], ["\u2581mapoke", "o"], ["\u2581hijira", "r"], ["\u2581config", "u"], ["\u2581anayes", "i"], ["\u2581maison", "s"], ["vention", "s"], ["\u2581Maalum", "u"], ["\u2581aliyen", "i"], ["publica", "n"], ["\u2581Access", "o"], ["\u2581volont", "\u00e9"], ["\u2581\u00e9trang", "e"], ["\u2581birane", "n"], ["\u2581jihadi", "s"], ["\u2581nature", "l"], ["\u2581aliona", "o"], ["\u2581pr\u00e9cis", "e"], ["ishanga", "e"], ["\u2581propre", "s"], ["\u2581korafi", "n"], ["\u2581mondia", "l"], ["\u2581christ", "i"], ["\u2581iliyo", "wasilishwa"], ["\u2581walio", "chaguliwa"], ["\u2581ngoku", "sebenzisa"], ["\u2581ngoku", "khawuleza"], ["\u2581ngoku", "pheleleyo"], ["\u2581iliyo", "sababisha"], ["\u2581kushu", "ghulikia"], ["\u2581alipo", "tembelea"], ["\u2581walio", "hudhuria"], ["\u2581wakim", "sikiliza"], ["\u2581iliyo", "andaliwa"], ["\u2581mwana", "harakati"], ["\u2581walio", "jitokeza"], ["\u2581kiele", "ktroniki"], ["ListJS", "wishList"], ["\u2581wasio", "julikana"], ["\u2581inayo", "julikana"], ["\u2581alipo", "zungumza"], ["\u2581inayo", "milikiwa"], ["\u2581walio", "athirika"], ["\u2581inayo", "patikana"], ["\u2581inayo", "tarajiwa"], ["\u2581masha", "mbulizi"], ["\u2581iliyo", "fanyika"], ["\u2581usafi", "rishaji"], ["\u2581akisa", "limiana"], ["\u2581ngoku", "phelele"], ["\u2581kulin", "ganisha"], ["\u2581inayo", "endelea"], ["\u2581esikh", "undleni"], ["\u2581iliyo", "andikwa"], ["\u2581walio", "shiriki"], ["\u2581akiwa", "silisha"], ["\u2581photo", "grapher"], ["\u2581metro", "politan"], ["\u2581inayo", "ongozwa"], ["\u2581kusha", "mbuliwa"], ["intern", "ational"], ["\u2581ngoku", "qondile"], ["\u2581techn", "ologies"], ["\u2581inayo", "mkabili"], ["\u2581walio", "kamatwa"], ["\u2581ibara", "\u1eb9nis\u1ecdr\u1ecd"], ["\u2581simba", "chawene"], ["\u2581walio", "teuliwa"], ["\u2581akiwa", "hutubia"], ["\u2581mwana", "mitindo"], ["\u2581watan", "ganyika"], ["\u2581tumes", "huhudia"], ["\u2581gratu", "itement"], ["\u2581inayo", "onyesha"], ["\u2581conna", "issance"], ["\u2581inter", "vention"], ["\u2581jamii", "forums"], ["\u2581kuten", "geneza"], ["\u2581ngesi", "khathi"], ["\u2581iliyo", "tolewa"], ["\u2581mwana", "sheria"], ["\u2581kuchu", "kuliwa"], ["\u2581mwana", "muziki"], ["\u2581ngoku", "shesha"], ["\u2581kucha", "guliwa"], ["fanele", "kileyo"], ["\u2581inter", "nation"], ["\u2581photo", "graphy"], ["\u2581Jamii", "Forums"], ["\u2581inama", "anisha"], ["\u2581mwana", "halisi"], ["\u2581kufun", "guliwa"], ["\u2581wames", "hindwa"], ["\u2581ngoku", "vamile"], ["\u2581entre", "prises"], ["\u2581kusha", "mbulia"], ["\u2581alipo", "ulizwa"], ["\u2581abdul", "rahman"], ["\u2581walio", "husika"], ["\u2581nigba", "gbogbo"], ["\u2581alipo", "wasili"], ["\u2581inayo", "tolewa"], ["\u2581aliye", "fariki"], ["\u2581masha", "mbulio"], ["\u2581kwesi", "khathi"], ["\u2581Photo", "graphy"], ["\u2581ngoku", "qinise"], ["\u2581corpo", "ration"], ["\u2581kanga", "kanani"], ["\u2581walio", "fariki"], ["\u2581wanao", "husika"], ["\u2581mwana", "habari"], ["\u2581alipo", "kutana"], ["khatha", "liseki"], ["\u2581kucha", "pishwa"], ["\u2581possi", "bilit\u00e9"], ["\u2581inayo", "ongoza"], ["\u2581mwana", "kijiji"], ["khethe", "kileyo"], ["\u2581wanao", "hitaji"], ["\u2581ngoku", "gcwele"], ["\u2581appar", "tement"], ["\u2581inayo", "tumika"], ["\u2581kuzin", "duliwa"], ["\u2581aliye", "zaliwa"], ["\u2581iliyo", "fanywa"], ["\u2581walio", "poteza"], ["\u2581sinto", "fahamu"], ["\u2581inayo", "tokana"], ["\u2581autom", "atique"], ["\u2581Mwana", "sheria"], ["\u2581verse", "kering"], ["chunge", "chunge"], ["\u2581walio", "kuwepo"], ["\u2581parte", "naires"], ["\u2581iliyo", "chezwa"], ["\u2581kupan", "dishwa"], ["\u2581inayo", "fanywa"], ["\u2581alipo", "kwenda"], ["\u2581kishi", "rikina"], ["\u2581Abdul", "rahman"], ["\u2581itaku", "saidia"], ["\u2581kiuta", "maduni"], ["\u2581n\u00e9ces", "saires"], ["\u2581iliyo", "pangwa"], ["\u2581kufun", "dishwa"], ["thembe", "kileyo"], ["\u2581ukuba", "luleka"], ["\u2581mbali", "mbali"], ["\u2581watan", "zania"], ["\u2581tekno", "lojia"], ["\u2581kuima", "risha"], ["\u2581kumbu", "kumbu"], ["\u2581shiri", "kisho"], ["\u2581mwana", "funzi"], ["\u2581kufua", "tilia"], ["\u2581mwaki", "lishi"], ["\u2581uende", "shaji"], ["\u2581opere", "sheni"], ["\u2581mwana", "chama"], ["lingan", "ishwa"], ["\u2581matsa", "lolin"], ["\u2581kufun", "disha"], ["\u2581kungi", "yoyin"], ["\u2581mwana", "siasa"], ["\u2581kushu", "hudia"], ["\u2581kitan", "zania"], ["\u2581wanao", "fanya"], ["\u2581kasan", "cewar"], ["\u2581admin", "istra"], ["\u2581mahai", "fiyar"], ["\u2581inayo", "fuata"], ["\u2581ninge", "penda"], ["catego", "rized"], ["\u2581aliwa", "ambia"], ["\u2581muhim", "miyar"], ["\u2581wanao", "tumia"], ["\u2581theba", "thini"], ["\u2581wanam", "gambo"], ["\u2581propa", "ganda"], ["shirik", "ishwa"], ["\u2581banga", "rorin"], ["\u2581pr\u00e9si", "denti"], ["\u2581iliyo", "undwa"], ["\u2581diff\u00e9", "rents"], ["\u2581walio", "fanya"], ["\u2581entre", "prise"], ["\u2581kucha", "pisha"], ["\u2581inner", "dream"], ["\u2581trait", "ement"], ["\u2581kusha", "wishi"], ["\u2581\u00e9cono", "mique"], ["\u2581Inner", "dream"], ["\u2581promo", "sheni"], ["\u2581izing", "xenye"], ["\u2581rapid", "ement"], ["\u2581smart", "phone"], ["\u2581rambi", "rambi"], ["\u2581kushu", "ghuli"], ["\u2581uweze", "shaji"], ["\u2581cutut", "tukan"], ["\u2581polit", "iques"], ["\u2581publi", "shers"], ["\u2581kushi", "kilia"], ["\u2581akawa", "ambia"], ["\u2581umpha", "kathi"], ["thuthu", "kiswa"], ["\u2581haija", "lishi"], ["\u2581akani", "ambia"], ["\u2581iliyo", "wekwa"], ["\u2581simpl", "ement"], ["\u2581alipo", "fanya"], ["\u2581engag", "ement"], ["badili", "shana"], ["\u2581shiri", "kishi"], ["\u2581kupan", "disha"], ["\u2581cikak", "kiyar"], ["\u2581anaye", "fanya"], ["\u2581China", "Check"], ["\u2581china", "check"], ["\u2581chang", "ement"], ["\u2581alini", "ambia"], ["\u2581\u00e9lect", "rique"], ["\u2581wanao", "penda"], ["sebenz", "isana"], ["\u2581wacha", "mbuzi"], ["\u2581compr", "endre"], ["\u2581iliyo", "tokea"], ["\u2581tamba", "yoyin"], ["\u2581crois", "sance"], ["\u2581mwana", "spoti"], ["\u2581alili", "ambia"], ["\u2581kurej", "eshwa"], ["\u2581imeji", "panga"], ["\u2581facil", "ement"], ["\u2581trava", "iller"], ["\u2581milit", "aires"], ["associ", "ation"], ["\u2581ngoku", "banzi"], ["\u2581kweli", "kweli"], ["xibele", "lwano"], ["\u2581initi", "ative"], ["\u2581secr\u00e9", "taire"], ["\u2581inapo", "tokea"], ["\u2581upoto", "shaji"], ["\u2581block", "chain"], ["\u2581wanao", "daiwa"], ["\u2581minis", "tocin"], ["lingan", "iselo"], ["\u2581masha", "mbani"], ["\u2581yange", "mpela"], ["\u2581aggre", "gated"], ["\u2581uniqu", "ement"], ["\u2581iliyo", "fuata"], ["\u2581black", "berry"], ["\u2581amewa", "ambia"], ["\u2581inayo", "fanya"], ["\u2581perme", "ttent"], ["\u2581feder", "ation"], ["\u2581walio", "tajwa"], ["\u2581promo", "tions"], ["\u2581kumwa", "gilia"], ["\u2581anaye", "daiwa"], ["\u2581mwana", "jeshi"], ["\u2581final", "ement"], ["\u2581aliye", "fanya"], ["\u2581alipo", "ingia"], ["\u2581kesho", "kutwa"], ["hlango", "thini"], ["......", "....."], ["\u2581wanao", "ingia"], ["\u2581kuche", "kesha"], ["\u2581tabba", "tarwa"], ["\u2581iliyo", "pigwa"], ["\u2581ameli", "ambia"], ["\u2581total", "ement"], ["\u2581kushi", "riki"], ["\u2581gwamn", "atin"], ["\u2581masha", "riki"], ["\u2581iliyo", "pita"], ["\u2581aliye", "kuwa"], ["tekele", "zaji"], ["\u2581masha", "biki"], ["\u2581kulin", "gana"], ["\u2581walio", "kuwa"], ["\u2581mwana", "damu"], ["\u2581mashi", "rika"], ["\u2581alipo", "kuwa"], ["\u2581uweze", "kano"], ["\u2581karka", "shin"], ["\u2581kutan", "gaza"], ["shirik", "isha"], ["\u2581isipo", "kuwa"], ["\u2581maele", "kezo"], ["\u2581insta", "gram"], ["\u2581mwana", "nchi"], ["\u2581iliyo", "kuwa"], ["lingan", "isha"], ["\u2581misha", "hara"], ["\u2581hadha", "rani"], ["witzer", "land"], ["\u2581taima", "kawa"], ["\u2581takri", "bani"], ["\u2581amewa", "taka"], ["\u2581kadha", "lika"], ["hakiki", "shia"], ["\u2581Masha", "riki"], ["\u2581wanao", "ishi"], ["\u2581kipen", "gele"], ["qinise", "kisa"], ["badili", "shwa"], ["\u2581react", "ions"], ["\u2581musul", "unci"], ["\u2581masha", "hidi"], ["\u2581aliwa", "taka"], ["shirik", "iana"], ["\u2581cutut", "tuka"], ["\u2581kurej", "esha"], ["\u2581muhim", "bili"], ["wasili", "shwa"], ["\u2581umasi", "kini"], ["\u2581mashi", "taka"], ["\u2581parti", "culi"], ["\u2581kumwa", "mbia"], ["\u2581matri", "mony"], ["\u2581kasan", "cewa"], ["ungani", "shwa"], ["\u2581samfu", "rori"], ["iseben", "zisa"], ["\u2581abdul", "lahi"], ["\u2581ramad", "hani"], ["mwenye", "kiti"], ["\u2581garga", "jiya"], ["\u2581mwana", "mume"], ["dangan", "yifu"], ["\u2581Muham", "madu"], ["khethe", "kile"], ["\u2581wanao", "taka"], ["\u2581iweze", "kana"], ["\u2581mashu", "huri"], ["shambu", "liwa"], ["\u2581kucho", "chea"], ["\u2581uvumi", "livu"], ["\u2581madhu", "buti"], ["\u2581chris", "tian"], ["\u2581kuisa", "idia"], ["\u2581eliza", "beth"], ["\u2581kitaa", "lamu"], ["\u2581kuche", "lewa"], ["\u2581kitan", "dani"], ["\u2581kitaa", "luma"], ["\u2581shaka", "tawa"], ["\u2581matsa", "loli"], ["\u2581madhu", "muni"], ["\u2581anaye", "weza"], ["\u2581aliyo", "kuwa"], ["\u2581gwamn", "onin"], ["zerbai", "jani"], ["\u2581Insta", "gram"], ["shirik", "iano"], ["\u2581alipo", "fika"], ["\u2581pende", "kezo"], ["thuthu", "kisa"], ["\u2581r\u00e9sul", "tats"], ["\u2581inayo", "weza"], ["hannes", "burg"], ["furahi", "shwa"], ["\u2581micro", "soft"], ["\u2581wasio", "kuwa"], ["\u2581walio", "pata"], ["kulung", "wane"], ["\u2581tabia", "nchi"], ["\u2581wenye", "viti"], ["\u2581diff\u00e9", "rent"], ["\u2581autor", "it\u00e9s"], ["\u2581kiele", "lezo"], ["thembe", "kile"], ["\u2581aliye", "wahi"], ["\u2581pinga", "mizi"], ["\u2581whole", "sale"], ["\u2581walio", "fika"], ["\u2581mwana", "dada"], ["\u2581kungi", "yoyi"], ["\u2581singa", "pore"], ["\u2581Abdul", "lahi"], ["\u2581tamba", "yoyi"], ["\u2581franc", "isko"], ["\u2581ameya", "sema"], ["\u2581ubina", "damu"], ["\u2581activ", "it\u00e9s"], ["\u2581pembe", "zoni"], ["\u2581viele", "lezo"], ["\u2581inayo", "itwa"], ["\u2581aliya", "sema"], ["\u2581kucha", "mbua"], ["\u2581aliji", "unga"], ["\u2581kuima", "rika"], ["\u2581banda", "rini"], ["\u2581Musul", "unci"], ["\u2581wange", "kuwa"], ["\u2581crist", "iano"], ["\u2581certa", "ines"], ["\u2581anaye", "taka"], ["\u2581unapo", "kuwa"], ["\u2581haita", "kuwa"], ["\u2581probl", "\u00e8mes"], ["\u2581inatu", "mika"], ["\u2581haija", "wahi"], ["\u2581derni", "\u00e8res"], ["lalami", "kiwa"], ["shindi", "kana"], ["\u2581d\u00e9sor", "mais"], ["\u2581tanga", "wizi"], ["\u2581aliye", "pata"], ["\u2581scien", "tifi"], ["\u2581anapo", "kuwa"], ["\u2581makam", "ashi"], ["\u2581mashu", "leni"], ["\u2581proxi", "mit\u00e9"], ["\u2581isiyo", "kuwa"], ["\u2581makam", "anda"], ["\u2581kufua", "tana"], ["\u2581endle", "leni"], ["\u2581black", "jack"], ["\u2581diffi", "cile"], ["\u2581banga", "lore"], ["\u2581ameku", "tana"], ["\u2581parti", "cipa"], ["\u2581corpo", "rate"], ["\u2581confi", "ance"],
[...]
